{
  "version": "1.0",
  "truncation": null,
  "padding": null,
  "added_tokens": [],
  "normalizer": null,
  "pre_tokenizer": {
    "type": "ByteLevel",
    "add_prefix_space": true,
    "trim_offsets": true,
    "use_regex": true
  },
  "post_processor": {
    "type": "ByteLevel",
    "add_prefix_space": true,
    "trim_offsets": true,
    "use_regex": true
  },
  "decoder": {
    "type": "ByteLevel",
    "add_prefix_space": true,
    "trim_offsets": true,
    "use_regex": true
  },
  "model": {
    "type": "BPE",
    "dropout": null,
    "unk_token": null,
    "continuing_subword_prefix": null,
    "end_of_word_suffix": null,
    "fuse_unk": false,
    "byte_fallback": false,
    "ignore_merges": false,
    "vocab": {
      "!": 0,
      "\"": 1,
      "#": 2,
      "$": 3,
      "%": 4,
      "&": 5,
      "'": 6,
      "(": 7,
      ")": 8,
      "*": 9,
      "+": 10,
      ",": 11,
      "-": 12,
      ".": 13,
      "/": 14,
      "0": 15,
      "1": 16,
      "2": 17,
      "3": 18,
      "4": 19,
      "5": 20,
      "6": 21,
      "7": 22,
      "8": 23,
      "9": 24,
      ":": 25,
      ";": 26,
      "<": 27,
      "=": 28,
      ">": 29,
      "?": 30,
      "@": 31,
      "A": 32,
      "B": 33,
      "C": 34,
      "D": 35,
      "E": 36,
      "F": 37,
      "G": 38,
      "H": 39,
      "I": 40,
      "J": 41,
      "K": 42,
      "L": 43,
      "M": 44,
      "N": 45,
      "O": 46,
      "P": 47,
      "Q": 48,
      "R": 49,
      "S": 50,
      "T": 51,
      "U": 52,
      "V": 53,
      "W": 54,
      "X": 55,
      "Y": 56,
      "Z": 57,
      "[": 58,
      "\\": 59,
      "]": 60,
      "^": 61,
      "_": 62,
      "`": 63,
      "a": 64,
      "b": 65,
      "c": 66,
      "d": 67,
      "e": 68,
      "f": 69,
      "g": 70,
      "h": 71,
      "i": 72,
      "j": 73,
      "k": 74,
      "l": 75,
      "m": 76,
      "n": 77,
      "o": 78,
      "p": 79,
      "q": 80,
      "r": 81,
      "s": 82,
      "t": 83,
      "u": 84,
      "v": 85,
      "w": 86,
      "x": 87,
      "y": 88,
      "z": 89,
      "{": 90,
      "|": 91,
      "}": 92,
      "~": 93,
      "¡": 94,
      "¢": 95,
      "£": 96,
      "¤": 97,
      "¥": 98,
      "¦": 99,
      "§": 100,
      "¨": 101,
      "©": 102,
      "ª": 103,
      "«": 104,
      "¬": 105,
      "®": 106,
      "¯": 107,
      "°": 108,
      "±": 109,
      "²": 110,
      "³": 111,
      "´": 112,
      "µ": 113,
      "¶": 114,
      "·": 115,
      "¸": 116,
      "¹": 117,
      "º": 118,
      "»": 119,
      "¼": 120,
      "½": 121,
      "¾": 122,
      "¿": 123,
      "À": 124,
      "Á": 125,
      "Â": 126,
      "Ã": 127,
      "Ä": 128,
      "Å": 129,
      "Æ": 130,
      "Ç": 131,
      "È": 132,
      "É": 133,
      "Ê": 134,
      "Ë": 135,
      "Ì": 136,
      "Í": 137,
      "Î": 138,
      "Ï": 139,
      "Ð": 140,
      "Ñ": 141,
      "Ò": 142,
      "Ó": 143,
      "Ô": 144,
      "Õ": 145,
      "Ö": 146,
      "×": 147,
      "Ø": 148,
      "Ù": 149,
      "Ú": 150,
      "Û": 151,
      "Ü": 152,
      "Ý": 153,
      "Þ": 154,
      "ß": 155,
      "à": 156,
      "á": 157,
      "â": 158,
      "ã": 159,
      "ä": 160,
      "å": 161,
      "æ": 162,
      "ç": 163,
      "è": 164,
      "é": 165,
      "ê": 166,
      "ë": 167,
      "ì": 168,
      "í": 169,
      "î": 170,
      "ï": 171,
      "ð": 172,
      "ñ": 173,
      "ò": 174,
      "ó": 175,
      "ô": 176,
      "õ": 177,
      "ö": 178,
      "÷": 179,
      "ø": 180,
      "ù": 181,
      "ú": 182,
      "û": 183,
      "ü": 184,
      "ý": 185,
      "þ": 186,
      "ÿ": 187,
      "Ā": 188,
      "ā": 189,
      "Ă": 190,
      "ă": 191,
      "Ą": 192,
      "ą": 193,
      "Ć": 194,
      "ć": 195,
      "Ĉ": 196,
      "ĉ": 197,
      "Ċ": 198,
      "ċ": 199,
      "Č": 200,
      "č": 201,
      "Ď": 202,
      "ď": 203,
      "Đ": 204,
      "đ": 205,
      "Ē": 206,
      "ē": 207,
      "Ĕ": 208,
      "ĕ": 209,
      "Ė": 210,
      "ė": 211,
      "Ę": 212,
      "ę": 213,
      "Ě": 214,
      "ě": 215,
      "Ĝ": 216,
      "ĝ": 217,
      "Ğ": 218,
      "ğ": 219,
      "Ġ": 220,
      "ġ": 221,
      "Ģ": 222,
      "ģ": 223,
      "Ĥ": 224,
      "ĥ": 225,
      "Ħ": 226,
      "ħ": 227,
      "Ĩ": 228,
      "ĩ": 229,
      "Ī": 230,
      "ī": 231,
      "Ĭ": 232,
      "ĭ": 233,
      "Į": 234,
      "į": 235,
      "İ": 236,
      "ı": 237,
      "Ĳ": 238,
      "ĳ": 239,
      "Ĵ": 240,
      "ĵ": 241,
      "Ķ": 242,
      "ķ": 243,
      "ĸ": 244,
      "Ĺ": 245,
      "ĺ": 246,
      "Ļ": 247,
      "ļ": 248,
      "Ľ": 249,
      "ľ": 250,
      "Ŀ": 251,
      "ŀ": 252,
      "Ł": 253,
      "ł": 254,
      "Ń": 255,
      "Ġt": 256,
      "Ġth": 257,
      "Ġa": 258,
      "in": 259,
      "Ġw": 260,
      "Ġthe": 261,
      "re": 262,
      "Ġo": 263,
      "Ġs": 264,
      "at": 265,
      "er": 266,
      "nd": 267,
      "ou": 268,
      "Ġc": 269,
      "is": 270,
      "it": 271,
      "Ġb": 272,
      "ing": 273,
      "Ġm": 274,
      "en": 275,
      "Ġh": 276,
      "on": 277,
      "Ġto": 278,
      "Ġp": 279,
      "Ġf": 280,
      "an": 281,
      "es": 282,
      "Ġd": 283,
      "Ġof": 284,
      "or": 285,
      "ll": 286,
      "Ġin": 287,
      "Ġand": 288,
      "ed": 289,
      "Ġl": 290,
      "ar": 291,
      "Ġy": 292,
      "Ġthat": 293,
      "om": 294,
      "Ġg": 295,
      "as": 296,
      "ic": 297,
      "le": 298,
      "Ġyou": 299,
      "ve": 300,
      "ĠI": 301,
      "al": 302,
      "Ġwe": 303,
      "Ġn": 304,
      "Ġwh": 305,
      "ow": 306,
      "Ġis": 307,
      "Ġe": 308,
      "us": 309,
      "Ġbe": 310,
      "ut": 311,
      "Ġit": 312,
      "ion": 313,
      "ot": 314,
      "'s": 315,
      "et": 316,
      "Ġre": 317,
      "Ġha": 318,
      "ent": 319,
      "ct": 320,
      "Ġon": 321,
      "ld": 322,
      "ver": 323,
      "Th": 324,
      "ay": 325,
      "id": 326,
      "And": 327,
      "se": 328,
      "all": 329,
      "Ġthis": 330,
      "im": 331,
      "st": 332,
      "ro": 333,
      "ig": 334,
      "ur": 335,
      "ere": 336,
      "ly": 337,
      "Ġst": 338,
      "ch": 339,
      "ke": 340,
      "ce": 341,
      "Ġfor": 342,
      "if": 343,
      "Ġwas": 344,
      "ra": 345,
      "Ġan": 346,
      "ir": 347,
      "Ġdo": 348,
      "Ġare": 349,
      "oo": 350,
      "ith": 351,
      "ally": 352,
      "op": 353,
      "th": 354,
      "am": 355,
      "Ġhave": 356,
      "Ġwith": 357,
      "Ġab": 358,
      "Ġthey": 359,
      "Ġu": 360,
      "Ġse": 361,
      "Ġk": 362,
      "Ġcan": 363,
      "Ġ-": 364,
      "Ġ--": 365,
      "Ġas": 366,
      "Ġmo": 367,
      "ation": 368,
      "out": 369,
      "ht": 370,
      "Ġli": 371,
      "Ġso": 372,
      "Ġgo": 373,
      "So": 374,
      "Ġwhat": 375,
      "ad": 376,
      "Ġcom": 377,
      "Ġwor": 378,
      "'t": 379,
      "Ġhe": 380,
      "very": 381,
      "ould": 382,
      "ill": 383,
      "Ġat": 384,
      "Ġme": 385,
      "Ġabout": 386,
      "Ġsh": 387,
      "Ġne": 388,
      "ant": 389,
      "Ġnot": 390,
      "ter": 391,
      "ge": 392,
      "il": 393,
      "The": 394,
      "ul": 395,
      "ol": 396,
      "Ġall": 397,
      "ust": 398,
      "Ġj": 399,
      "Ġfr": 400,
      "Ġex": 401,
      "ers": 402,
      "use": 403,
      "ight": 404,
      "Ġpro": 405,
      "Ġsom": 406,
      "Ġch": 407,
      "Ġr": 408,
      "Ġor": 409,
      "Ġde": 410,
      "Ġthere": 411,
      "Ġmy": 412,
      "We": 413,
      "Ġpe": 414,
      "'re": 415,
      "ear": 416,
      "um": 417,
      "art": 418,
      "ople": 419,
      "pp": 420,
      "ck": 421,
      "Ġcon": 422,
      "ess": 423,
      "Ġlike": 424,
      "ate": 425,
      "ure": 426,
      "Ġone": 427,
      "ies": 428,
      "Ġpeople": 429,
      "Ġ\"": 430,
      "ca": 431,
      "ive": 432,
      "ity": 433,
      "Ġma": 434,
      "est": 435,
      "Ġfrom": 436,
      "nt": 437,
      "Ġkn": 438,
      "ect": 439,
      "ist": 440,
      "ble": 441,
      "ind": 442,
      "qu": 443,
      "Ġbut": 444,
      "Ġour": 445,
      "ink": 446,
      "Ġout": 447,
      "Ġal": 448,
      "Ġus": 449,
      "It": 450,
      "Ġint": 451,
      "Ġknow": 452,
      "Ġte": 453,
      "Ġjust": 454,
      "ook": 455,
      "rou": 456,
      "un": 457,
      "Ġv": 458,
      "Ġthing": 459,
      "and": 460,
      "cause": 461,
      "Ġsp": 462,
      "ide": 463,
      "Ġthem": 464,
      "But": 465,
      "Ġsee": 466,
      "ĠA": 467,
      "ie": 468,
      "Ġthese": 469,
      "Ġvery": 470,
      "os": 471,
      "ort": 472,
      "Ġtr": 473,
      "Ġif": 474,
      "Ġthink": 475,
      "Ġup": 476,
      "her": 477,
      "Ġwho": 478,
      "Ġget": 479,
      "Ġpl": 480,
      "ich": 481,
      "Ġgoing": 482,
      "Ġby": 483,
      "ci": 484,
      "ĠS": 485,
      "el": 486,
      "ain": 487,
      "Ġact": 488,
      "Ġsome": 489,
      "one": 490,
      "Ġwhen": 491,
      "iv": 492,
      "Ġ1": 493,
      "Ġbecause": 494,
      "Ġyour": 495,
      "Ġhad": 496,
      "Ġmore": 497,
      "Wh": 498,
      "Ġyear": 499,
      "em": 500,
      "og": 501,
      "Ġsa": 502,
      "our": 503,
      "Ġim": 504,
      "ĠC": 505,
      "Ġtim": 506,
      "Ġwould": 507,
      "Ġwere": 508,
      "ine": 509,
      "00": 510,
      "Ġwhich": 511,
      "Ġlook": 512,
      "od": 513,
      "Ġtheir": 514,
      "ame": 515,
      "Ġwant": 516,
      "ast": 517,
      "Ġreally": 518,
      "ment": 519,
      "Ġhow": 520,
      "Ġcomp": 521,
      "ually": 522,
      "ap": 523,
      ".\"": 524,
      "Ġsu": 525,
      "Ġwork": 526,
      "ard": 527,
      "ood": 528,
      "iz": 529,
      "ous": 530,
      "act": 531,
      "'ve": 532,
      "ack": 533,
      "gh": 534,
      "Ġen": 535,
      "reat": 536,
      "ĠM": 537,
      "Ġway": 538,
      "You": 539,
      "hing": 540,
      "Ġta": 541,
      "ose": 542,
      "Ġle": 543,
      "Ġhere": 544,
      "'m": 545,
      "ore": 546,
      "Ġworld": 547,
      "This": 548,
      "are": 549,
      "Ġtime": 550,
      "Ġhas": 551,
      "ans": 552,
      "ther": 553,
      "Ġthen": 554,
      "ab": 555,
      "ag": 556,
      "Ġper": 557,
      "ong": 558,
      "Ġqu": 559,
      "Ġevery": 560,
      "Ġdon": 561,
      "Ġinto": 562,
      "Ġexp": 563,
      "Ġactually": 564,
      "ace": 565,
      "Ġsay": 566,
      "Ġwill": 567,
      "Ġcould": 568,
      "Ġman": 569,
      "Ġfe": 570,
      "res": 571,
      "Ġev": 572,
      "ions": 573,
      "ild": 574,
      "ud": 575,
      "Ġco": 576,
      "ence": 577,
      "itt": 578,
      "Ġthings": 579,
      "Ġwhere": 580,
      "age": 581,
      "Ġyears": 582,
      "Ġnow": 583,
      "ĠB": 584,
      "Ġag": 585,
      "Ġother": 586,
      "Ġdid": 587,
      "alk": 588,
      "Now": 589,
      "Ġsomet": 590,
      "ff": 591,
      "iff": 592,
      "They": 593,
      "ach": 594,
      "nder": 595,
      "ical": 596,
      "Ġany": 597,
      "Ġbeen": 598,
      "Ġno": 599,
      "Ġmake": 600,
      "Ġhapp": 601,
      "Ġdiff": 602,
      "Ġcl": 603,
      "ice": 604,
      "Ġtw": 605,
      "ip": 606,
      "Ġthan": 607,
      "so": 608,
      "Ġun": 609,
      "Ġneed": 610,
      "red": 611,
      "Ġsaid": 612,
      "ĠE": 613,
      "ĠG": 614,
      "Ġstart": 615,
      "Ġpr": 616,
      "Ġpart": 617,
      "Ġright": 618,
      "irst": 619,
      "Ġover": 620,
      "own": 621,
      "ree": 622,
      "Ġbu": 623,
      "Ġimp": 624,
      "ry": 625,
      "Ġ2": 626,
      "Ġsomething": 627,
      "ign": 628,
      "ia": 629,
      "Ġpo": 630,
      "ome": 631,
      "Ġdis": 632,
      "ory": 633,
      "ite": 634,
      "Ġâ": 635,
      "Ġback": 636,
      "uch": 637,
      "pt": 638,
      "Ġtwo": 639,
      "orm": 640,
      "ĠH": 641,
      "round": 642,
      "ount": 643,
      "Ġmuch": 644,
      "olog": 645,
      "Ġgot": 646,
      "ĠP": 647,
      "Ġar": 648,
      "Ġkind": 649,
      "ib": 650,
      "Ġcall": 651,
      "ens": 652,
      "Ġthose": 653,
      "ĠT": 654,
      "ass": 655,
      "ife": 656,
      "Ġfirst": 657,
      "Ġdiffere": 658,
      "ĠN": 659,
      "ang": 660,
      "ittle": 661,
      "ater": 662,
      "ound": 663,
      "ĠD": 664,
      "Ġlittle": 665,
      "sel": 666,
      "Ġalso": 667,
      "cent": 668,
      "ue": 669,
      "Ġro": 670,
      "Ġnew": 671,
      "Ġlot": 672,
      "ep": 673,
      "Ġlo": 674,
      "That": 675,
      "Ġspe": 676,
      "ces": 677,
      "ght": 678,
      "ple": 679,
      "Ġcont": 680,
      "ult": 681,
      "way": 682,
      "ĠâĻ": 683,
      "Ġac": 684,
      "ves": 685,
      "Ġtalk": 686,
      "ber": 687,
      "Ġmost": 688,
      "Ġbet": 689,
      "king": 690,
      "Ġph": 691,
      "Ġdes": 692,
      "Ġshe": 693,
      "ving": 694,
      "vel": 695,
      "rain": 696,
      "ody": 697,
      "Ġonly": 698,
      "Ġres": 699,
      "In": 700,
      "Ġunder": 701,
      "ru": 702,
      "ated": 703,
      "able": 704,
      "What": 705,
      "Ġlife": 706,
      "ations": 707,
      "co": 708,
      "ell": 709,
      "Ġhis": 710,
      "Ġsy": 711,
      "Ġad": 712,
      "Ġday": 713,
      "Ġeven": 714,
      "ĠL": 715,
      "Ġhum": 716,
      "Ġam": 717,
      "Ġdifferent": 718,
      "ish": 719,
      "Ġtake": 720,
      "ms": 721,
      "Ġmany": 722,
      "ick": 723,
      "ict": 724,
      "ial": 725,
      "Ġgood": 726,
      "ĠR": 727,
      "rough": 728,
      "other": 729,
      "There": 730,
      "ĠâĻ«": 731,
      "du": 732,
      "Ġdoes": 733,
      "Ġbl": 734,
      "int": 735,
      "Ġreal": 736,
      "Ġdown": 737,
      "Ġaround": 738,
      "ance": 739,
      "Ġide": 740,
      "Ġher": 741,
      "ank": 742,
      "ire": 743,
      "Ġthrough": 744,
      "ob": 745,
      "ph": 746,
      "ase": 747,
      "Ġput": 748,
      "ents": 749,
      "pl": 750,
      "'ll": 751,
      "Ġcomm": 752,
      "pe": 753,
      "urn": 754,
      "ark": 755,
      "Ġpre": 756,
      "Ġshow": 757,
      "Ġuse": 758,
      "ange": 759,
      "cess": 760,
      "Ġbeing": 761,
      "Ġtell": 762,
      "form": 763,
      "Ġoff": 764,
      "ible": 765,
      "ĠF": 766,
      "ress": 767,
      "ade": 768,
      "ors": 769,
      "ak": 770,
      "Ġsame": 771,
      "Ġhappen": 772,
      "Well": 773,
      "Ġthou": 774,
      "Ġproble": 775,
      "Ġtoo": 776,
      "ether": 777,
      "Ġtry": 778,
      "ĠW": 779,
      "Ġfl": 780,
      "chn": 781,
      "ary": 782,
      "per": 783,
      "ath": 784,
      "Ġfact": 785,
      "Ġinc": 786,
      "ject": 787,
      "ys": 788,
      "Ġem": 789,
      "wn": 790,
      "Ġcome": 791,
      "xt": 792,
      "Ġsm": 793,
      "iver": 794,
      "Ġbr": 795,
      "stem": 796,
      "Ġcount": 797,
      "ful": 798,
      "day": 799,
      "tern": 800,
      "Ġdoing": 801,
      "ars": 802,
      "ord": 803,
      "ual": 804,
      "ning": 805,
      "ĠJ": 806,
      "Ġra": 807,
      "ĠO": 808,
      "Ġmay": 809,
      "Ġgreat": 810,
      "Ġfind": 811,
      "ool": 812,
      "ric": 813,
      "Ġtechn": 814,
      "Ġthree": 815,
      "ĠU": 816,
      "Ġbig": 817,
      "ons": 818,
      "ically": 819,
      "ne": 820,
      "row": 821,
      "ting": 822,
      "Ġgen": 823,
      "Ġwr": 824,
      "Ġhuman": 825,
      "ile": 826,
      "ac": 827,
      "ved": 828,
      "Ġpers": 829,
      "Ġbec": 830,
      "Ġsur": 831,
      "Ġpercent": 832,
      "ology": 833,
      "Ġwell": 834,
      "ied": 835,
      "ower": 836,
      "Ġsystem": 837,
      "He": 838,
      "Ġtra": 839,
      "fore": 840,
      "Ġdec": 841,
      "Ġbuild": 842,
      "thing": 843,
      "fter": 844,
      "nds": 845,
      "Ġstud": 846,
      "illion": 847,
      "Ġcalled": 848,
      "If": 849,
      "ub": 850,
      "self": 851,
      "te": 852,
      "Ġgu": 853,
      "'d": 854,
      "Ġlet": 855,
      "Ġapp": 856,
      "igh": 857,
      "Ġsim": 858,
      "Ġagain": 859,
      "body": 860,
      "Ġchild": 861,
      "ics": 862,
      "we": 863,
      "Ġquest": 864,
      "ition": 865,
      "cial": 866,
      "ious": 867,
      "Ġmade": 868,
      "Ġinv": 869,
      "ating": 870,
      "Ġind": 871,
      "Ġlong": 872,
      "Ġexper": 873,
      "Ġown": 874,
      "Ġimport": 875,
      "oss": 876,
      "Ġbel": 877,
      "mer": 878,
      "ities": 879,
      "Ġrem": 880,
      "oc": 881,
      "Ġshould": 882,
      "Ġlear": 883,
      "ize": 884,
      "ian": 885,
      "ĠCh": 886,
      "ren": 887,
      "Ġwhy": 888,
      "Ġwom": 889,
      "les": 890,
      "Ġsc": 891,
      "erest": 892,
      "ty": 893,
      "Ġunderst": 894,
      "Ġturn": 895,
      "ew": 896,
      "ates": 897,
      "av": 898,
      "ft": 899,
      "Ġob": 900,
      "Ġdesign": 901,
      "Ġchange": 902,
      "Ġhel": 903,
      "000": 904,
      "Ġmean": 905,
      "Ġcour": 906,
      "Ġtoday": 907,
      "Ġbrain": 908,
      "Ġend": 909,
      "ction": 910,
      "Ġimportant": 911,
      "Ġafter": 912,
      "Ġdidn": 913,
      "Ġthought": 914,
      "be": 915,
      "Ġfeel": 916,
      "Ġidea": 917,
      "Ġask": 918,
      "Thank": 919,
      "con": 920,
      "Ġbas": 921,
      "Ġperson": 922,
      "Ġlast": 923,
      "Ġplay": 924,
      "Ġcreat": 925,
      "Ġrel": 926,
      "Ġcar": 927,
      "als": 928,
      "ĠAnd": 929,
      "?\"": 930,
      "Ġinterest": 931,
      "Ġstarted": 932,
      "Ġinst": 933,
      "Ġits": 934,
      "ail": 935,
      "Ġgl": 936,
      "ĠIt": 937,
      "he": 938,
      "Ġexam": 939,
      "ull": 940,
      "Ġhim": 941,
      "Ġsch": 942,
      "old": 943,
      "Ġsci": 944,
      "ough": 945,
      "Ġtrans": 946,
      "Ġwent": 947,
      "ise": 948,
      "Ġbefore": 949,
      "Ġunderstand": 950,
      "Ġcourse": 951,
      "Ġins": 952,
      "gan": 953,
      "Ġmight": 954,
      "ution": 955,
      "Ġhelp": 956,
      "Ġgive": 957,
      "Ġbit": 958,
      "ese": 959,
      "Ġbetter": 960,
      "ility": 961,
      "Ġcons": 962,
      "ists": 963,
      "ĠK": 964,
      "Ġgra": 965,
      "ost": 966,
      "Ġanother": 967,
      "Ġpoint": 968,
      "Ġproblem": 969,
      "Ġ3": 970,
      "ular": 971,
      "Ġnever": 972,
      "Ġprodu": 973,
      "ave": 974,
      "ily": 975,
      "lic": 976,
      "Ġke": 977,
      "Ġstory": 978,
      "Ġbelie": 979,
      "ven": 980,
      "Ġele": 981,
      "Ġcoll": 982,
      "Ġable": 983,
      "ros": 984,
      "Ġinter": 985,
      "Ġfew": 986,
      "ert": 987,
      "und": 988,
      "kes": 989,
      "Ġbo": 990,
      "Ġfound": 991,
      "Ġstill": 992,
      "Ġsl": 993,
      "ix": 994,
      "Ġsort": 995,
      "Ġago": 996,
      "Ġkid": 997,
      "Ġent": 998,
      "Ġpower": 999,
      "Ġpol": 1000,
      "Ġtog": 1001,
      "Ġtogether": 1002,
      "Ġnext": 1003,
      "Ġplan": 1004,
      "Ġnum": 1005,
      "oth": 1006,
      "erg": 1007,
      "Ġfam": 1008,
      "Ġdr": 1009,
      "Ġplace": 1010,
      "Ġcame": 1011,
      "Ġwater": 1012,
      "velop": 1013,
      "Ġsol": 1014,
      "Ġschool": 1015,
      "Ġmon": 1016,
      "Ġmod": 1017,
      "uc": 1018,
      "alth": 1019,
      "ense": 1020,
      "Ġcommun": 1021,
      "ited": 1022,
      "Ġ19": 1023,
      "atch": 1024,
      "Ġhigh": 1025,
      "Ġcomple": 1026,
      "ween": 1027,
      "Ġcr": 1028,
      "Ġimag": 1029,
      "When": 1030,
      "Ġter": 1031,
      "ward": 1032,
      "ience": 1033,
      "Ġstr": 1034,
      "ng": 1035,
      "ather": 1036,
      "read": 1037,
      "Ġlearn": 1038,
      "Be": 1039,
      "Ġused": 1040,
      "Ġeach": 1041,
      "Ġbetween": 1042,
      "Ġart": 1043,
      "Ġpat": 1044,
      "Ġdat": 1045,
      "Ġla": 1046,
      "Ġtechnology": 1047,
      "ized": 1048,
      "ness": 1049,
      "Ġquestion": 1050,
      "Ġrec": 1051,
      "meric": 1052,
      "Ġ10": 1053,
      "Ġdevelop": 1054,
      "Ġ20": 1055,
      ",\"": 1056,
      "ĠSt": 1057,
      "iss": 1058,
      "Ġext": 1059,
      "ures": 1060,
      "Ġsmall": 1061,
      "Ġatt": 1062,
      "Ġlove": 1063,
      "ĠAf": 1064,
      "Ġfour": 1065,
      "Ġcre": 1066,
      "ork": 1067,
      "Ġlooking": 1068,
      "Ġexample": 1069,
      "Ġmet": 1070,
      "ific": 1071,
      "Ġmed": 1072,
      "Ġser": 1073,
      "arch": 1074,
      "ways": 1075,
      "ram": 1076,
      "Ġop": 1077,
      "Ġdone": 1078,
      "cond": 1079,
      "az": 1080,
      "iness": 1081,
      "Ġold": 1082,
      "ets": 1083,
      "Ġpartic": 1084,
      "Ġdata": 1085,
      "ute": 1086,
      "ably": 1087,
      "Ġdoesn": 1088,
      "Ġlight": 1089,
      "Ġmin": 1090,
      "Ġwomen": 1091,
      "Ġfin": 1092,
      "ĠAmeric": 1093,
      "ered": 1094,
      "ced": 1095,
      "Ġcell": 1096,
      "Ġgrow": 1097,
      "Ġcare": 1098,
      "Ġmom": 1099,
      "Ġeff": 1100,
      "Ġword": 1101,
      "cept": 1102,
      "Ġcent": 1103,
      "ings": 1104,
      "ative": 1105,
      "Ġwanted": 1106,
      "Ġcomput": 1107,
      "cy": 1108,
      "Ġbeh": 1109,
      "Ġstu": 1110,
      "conom": 1111,
      "Ġhard": 1112,
      "Ġread": 1113,
      "Ġmove": 1114,
      "ah": 1115,
      "Ġfar": 1116,
      "Ġwhole": 1117,
      "Ġposs": 1118,
      "Ġlar": 1119,
      "Ġreas": 1120,
      "Ġlive": 1121,
      "ands": 1122,
      "ĠY": 1123,
      "formation": 1124,
      "ger": 1125,
      "Ġtrying": 1126,
      "Ġnat": 1127,
      "Ġever": 1128,
      "Ġmillion": 1129,
      "Ġear": 1130,
      "ross": 1131,
      "Ġed": 1132,
      "Ġbi": 1133,
      "ĠIn": 1134,
      "Ġworking": 1135,
      "Ġchang": 1136,
      "ote": 1137,
      "selves": 1138,
      "Ġaway": 1139,
      "Ġgiv": 1140,
      "Ġalways": 1141,
      "ope": 1142,
      "Ġel": 1143,
      "ational": 1144,
      "Because": 1145,
      "ird": 1146,
      "Ġeconom": 1147,
      "oney": 1148,
      "Ġchildren": 1149,
      "Ġexpl": 1150,
      "Ġless": 1151,
      "Ġbelieve": 1152,
      "cer": 1153,
      "Ġbus": 1154,
      "ĠSo": 1155,
      "wh": 1156,
      "ural": 1157,
      "ĠWe": 1158,
      "Ġgener": 1159,
      "..": 1160,
      "gin": 1161,
      "ism": 1162,
      "Ġrep": 1163,
      "ments": 1164,
      "Ġcap": 1165,
      "Ġsk": 1166,
      "50": 1167,
      "Ġbook": 1168,
      "Ġhealth": 1169,
      "Ġcountry": 1170,
      "Ġanim": 1171,
      "How": 1172,
      "Ġresp": 1173,
      "Ġsupp": 1174,
      "ĠAfric": 1175,
      "Ġpict": 1176,
      "Ġfo": 1177,
      "Ġcor": 1178,
      "Ġmus": 1179,
      "ont": 1180,
      "Ġfrie": 1181,
      "ries": 1182,
      "Ġsub": 1183,
      "Ġrun": 1184,
      "ruct": 1185,
      "nect": 1186,
      "Ġusing": 1187,
      "ract": 1188,
      "Ġspace": 1189,
      "Ġopen": 1190,
      "Ġproject": 1191,
      "hip": 1192,
      "Ġhand": 1193,
      "Ġmeans": 1194,
      "ock": 1195,
      "Ġfive": 1196,
      "Ġprob": 1197,
      "atter": 1198,
      "Ġthinking": 1199,
      "led": 1200,
      "Ġtook": 1201,
      "ps": 1202,
      "Ġkids": 1203,
      "vers": 1204,
      "Ġcreate": 1205,
      "nce": 1206,
      "Ġinformation": 1207,
      "Ġmaybe": 1208,
      "Ġvis": 1209,
      "aces": 1210,
      "Ġinf": 1211,
      "Ġ4": 1212,
      "Ġmoney": 1213,
      "alf": 1214,
      "Ġeverything": 1215,
      "Ġcou": 1216,
      "Ġdoll": 1217,
      "Ġnumber": 1218,
      "Ġpub": 1219,
      "air": 1220,
      "Ġlead": 1221,
      "Ġhome": 1222,
      "vern": 1223,
      "Ġspec": 1224,
      "gg": 1225,
      "Ġbecome": 1226,
      "Ġmind": 1227,
      "Ġsecond": 1228,
      "oy": 1229,
      "iron": 1230,
      "Ġreg": 1231,
      "Ġprocess": 1232,
      "Ġcompan": 1233,
      "Ġorgan": 1234,
      "its": 1235,
      "ks": 1236,
      "ĠYou": 1237,
      "Ġsing": 1238,
      "rib": 1239,
      "Ġleft": 1240,
      "ident": 1241,
      "ond": 1242,
      "Ġteach": 1243,
      "iew": 1244,
      "ten": 1245,
      "ues": 1246,
      "ergy": 1247,
      "Ġfood": 1248,
      "ention": 1249,
      "Ġenough": 1250,
      "ĠUn": 1251,
      "Ġwalk": 1252,
      "Ġquite": 1253,
      "ever": 1254,
      "Ġacc": 1255,
      "Ġbest": 1256,
      "Ġgetting": 1257,
      "aut": 1258,
      "ivers": 1259,
      "Ġfut": 1260,
      "sw": 1261,
      "Ġform": 1262,
      "Ġhead": 1263,
      "Ġinteresting": 1264,
      "Ġprog": 1265,
      "Ġeng": 1266,
      "These": 1267,
      "Ġcomes": 1268,
      "Ġfun": 1269,
      "Ġwar": 1270,
      "ories": 1271,
      "ĠV": 1272,
      "pr": 1273,
      "Ġsense": 1274,
      "ouse": 1275,
      "ital": 1276,
      "Ġpres": 1277,
      "iting": 1278,
      "Ġprobably": 1279,
      "Ġsocial": 1280,
      "Ġdem": 1281,
      "Ġmark": 1282,
      "Ġfuture": 1283,
      "Ġenergy": 1284,
      "Ġgovern": 1285,
      "Ġca": 1286,
      "Ġhappened": 1287,
      "Ġansw": 1288,
      "Ġconf": 1289,
      "Ġtimes": 1290,
      "Ġset": 1291,
      "ines": 1292,
      "Ġcle": 1293,
      "ĠInd": 1294,
      "Ġelect": 1295,
      "ertain": 1296,
      "ts": 1297,
      "Ġgrou": 1298,
      "Ġmonth": 1299,
      "ety": 1300,
      "ier": 1301,
      "Ġtalking": 1302,
      "Ġmaking": 1303,
      "Ġadd": 1304,
      "Ġbegin": 1305,
      "Ġstuff": 1306,
      "tty": 1307,
      "Ġcontro": 1308,
      "Ġroom": 1309,
      "Ġbuilding": 1310,
      "Ġconnect": 1311,
      "Ġcur": 1312,
      "Ġmoment": 1313,
      "Ġpass": 1314,
      "ient": 1315,
      "Ġbody": 1316,
      "Ġpop": 1317,
      "Ġglob": 1318,
      "Ġenv": 1319,
      "Ġphys": 1320,
      "Ġsign": 1321,
      "Ġwithout": 1322,
      "Ġtold": 1323,
      "Ġdist": 1324,
      "ately": 1325,
      "reen": 1326,
      "Ġgr": 1327,
      "Ġhalf": 1328,
      "Ġside": 1329,
      "Ġpretty": 1330,
      "Ġelse": 1331,
      "Ġcountries": 1332,
      "ake": 1333,
      "ner": 1334,
      "Ġwee": 1335,
      "Ġbeaut": 1336,
      "Ġdollars": 1337,
      "Ġpie": 1338,
      "Ġlives": 1339,
      "Ġcoming": 1340,
      "Ġreason": 1341,
      "Ġbusiness": 1342,
      "ogra": 1343,
      "Ġkeep": 1344,
      "imes": 1345,
      "Ġanything": 1346,
      "Ġmodel": 1347,
      "Ġhist": 1348,
      "Ġsoci": 1349,
      "Ġsuch": 1350,
      "One": 1351,
      "Ġjob": 1352,
      "ior": 1353,
      "Ġbad": 1354,
      "Ġwo": 1355,
      "lf": 1356,
      "Ġtop": 1357,
      "ices": 1358,
      "Ġopp": 1359,
      "Why": 1360,
      "gs": 1361,
      "me": 1362,
      "Ġallow": 1363,
      "Ġdef": 1364,
      "Ġacross": 1365,
      "My": 1366,
      "ember": 1367,
      "ortun": 1368,
      "Ġenviron": 1369,
      "der": 1370,
      "Ġstop": 1371,
      "Ġmen": 1372,
      "Ġsound": 1373,
      "uring": 1374,
      "Ġeas": 1375,
      "Ġsays": 1376,
      "ĠThe": 1377,
      "Ġmakes": 1378,
      "Here": 1379,
      "Ġyoung": 1380,
      "Ġbring": 1381,
      "Ġstand": 1382,
      "ead": 1383,
      "Ġhope": 1384,
      "Ġair": 1385,
      "Ġscience": 1386,
      "Ġseen": 1387,
      "olution": 1388,
      "Ġsaw": 1389,
      "Ġmatter": 1390,
      "Ġliving": 1391,
      "idd": 1392,
      "ince": 1393,
      "Ġty": 1394,
      "Ġlater": 1395,
      "Ġprot": 1396,
      "most": 1397,
      "Ġfig": 1398,
      "Ġasked": 1399,
      "Ġval": 1400,
      "Ġexperience": 1401,
      "Ġeduc": 1402,
      "ĠAfrica": 1403,
      "Ġgoes": 1404,
      "Ġsimple": 1405,
      "Ġ200": 1406,
      "Ġparticular": 1407,
      "ided": 1408,
      "Ġhour": 1409,
      "io": 1410,
      "Ġrese": 1411,
      "where": 1412,
      "kay": 1413,
      "ying": 1414,
      "Ġey": 1415,
      "Ġhappens": 1416,
      "Ġcult": 1417,
      "ality": 1418,
      "Ġsit": 1419,
      "man": 1420,
      "Ġhaving": 1421,
      "Ġwonder": 1422,
      "llow": 1423,
      "ĠChin": 1424,
      "Ġscient": 1425,
      "Ġcam": 1426,
      "Ġphot": 1427,
      "Ġpicture": 1428,
      "ash": 1429,
      "ime": 1430,
      "ilt": 1431,
      "aps": 1432,
      "Ġways": 1433,
      "angu": 1434,
      "ken": 1435,
      "ught": 1436,
      "She": 1437,
      "Ġaut": 1438,
      "ization": 1439,
      "ott": 1440,
      "Ġcomplete": 1441,
      "Ġcol": 1442,
      "Ġmem": 1443,
      "Ġfamily": 1444,
      "Ġthous": 1445,
      "Ġdet": 1446,
      "ots": 1447,
      "Ġeffect": 1448,
      "For": 1449,
      "Ġlist": 1450,
      "Ġsix": 1451,
      "arth": 1452,
      "Ġchar": 1453,
      "Ġproblems": 1454,
      "Ġref": 1455,
      "Ġprof": 1456,
      "Ġbre": 1457,
      "Ġshare": 1458,
      "Ġlevel": 1459,
      "ĠNew": 1460,
      "Ġdays": 1461,
      "Ġcomputer": 1462,
      "ream": 1463,
      "Ġresearch": 1464,
      "Ġsingle": 1465,
      "iter": 1466,
      "Ġrest": 1467,
      "Ġequ": 1468,
      "Ġglobal": 1469,
      "Ġenvironment": 1470,
      "Ġplanet": 1471,
      "Ġcase": 1472,
      "arr": 1473,
      "irl": 1474,
      "Let": 1475,
      "Ġcity": 1476,
      "ograph": 1477,
      "Ġlangu": 1478,
      "As": 1479,
      "arent": 1480,
      "Ġfore": 1481,
      "Ġmach": 1482,
      "Ġbasically": 1483,
      "Ġtest": 1484,
      "Ġloc": 1485,
      "ED": 1486,
      "ike": 1487,
      "ins": 1488,
      "orn": 1489,
      "Ġinside": 1490,
      "Ġmusic": 1491,
      "ready": 1492,
      "Ġpolit": 1493,
      "Ġcertain": 1494,
      "Ġmor": 1495,
      "ulation": 1496,
      "Ġalmost": 1497,
      "Ġpossible": 1498,
      "Ġpublic": 1499,
      "Ġsure": 1500,
      "less": 1501,
      "Ġyet": 1502,
      "Ġsaying": 1503,
      "ov": 1504,
      "Ġboth": 1505,
      "Ġamaz": 1506,
      "Ġanswer": 1507,
      "Ġwatch": 1508,
      "Ġvide": 1509,
      "Ġonce": 1510,
      "Ġguy": 1511,
      "med": 1512,
      "Ġhear": 1513,
      "Ġwhile": 1514,
      "itive": 1515,
      "allen": 1516,
      "ĠEarth": 1517,
      "uge": 1518,
      "Ġwhether": 1519,
      "unch": 1520,
      "Ġrob": 1521,
      "Ġpain": 1522,
      "ants": 1523,
      "osed": 1524,
      "Ġdisco": 1525,
      "Ġage": 1526,
      "Ġalready": 1527,
      "Ġnothing": 1528,
      "Ġcontin": 1529,
      "ee": 1530,
      "Ġsuc": 1531,
      "ury": 1532,
      "Ġbillion": 1533,
      "Ġincred": 1534,
      "Ġwrong": 1535,
      "lish": 1536,
      "ivid": 1537,
      "Ġlooked": 1538,
      "Ġself": 1539,
      "Ġideas": 1540,
      "Ġdise": 1541,
      "iverse": 1542,
      "Ġsomeone": 1543,
      "Ġexact": 1544,
      "Ġwithin": 1545,
      "oice": 1546,
      "Ġexc": 1547,
      "âĢ": 1548,
      "Ġtreat": 1549,
      "Ġremember": 1550,
      "Ġcommunity": 1551,
      "Ġlooks": 1552,
      "Ġproduct": 1553,
      "Ġass": 1554,
      "Ġcontrol": 1555,
      "Ġunt": 1556,
      "Ġhistory": 1557,
      "ield": 1558,
      "Ġsw": 1559,
      "Ġheart": 1560,
      "Ġmyself": 1561,
      "iful": 1562,
      "Ġpar": 1563,
      "ases": 1564,
      "ware": 1565,
      "Ġlarge": 1566,
      "Ġcells": 1567,
      "Ġoften": 1568,
      "side": 1569,
      "Ġtrue": 1570,
      "Ġcost": 1571,
      "Ġamazing": 1572,
      "undred": 1573,
      "Ġdev": 1574,
      "Ġheard": 1575,
      "Ġmil": 1576,
      "Ġlab": 1577,
      "Ġiss": 1578,
      "utes": 1579,
      "Ġdire": 1580,
      "imate": 1581,
      "pect": 1582,
      "ĠIntern": 1583,
      "Ġkill": 1584,
      "Ġchallen": 1585,
      "Ġcond": 1586,
      "Ġwords": 1587,
      "uro": 1588,
      "ages": 1589,
      "Ġfigure": 1590,
      "work": 1591,
      "Ġimagine": 1592,
      "Ġwa": 1593,
      "de": 1594,
      "ians": 1595,
      "aterial": 1596,
      "aster": 1597,
      "Ġmag": 1598,
      "âĢĻ": 1599,
      "vious": 1600,
      "ene": 1601,
      "Ġworks": 1602,
      "ivity": 1603,
      "Ġche": 1604,
      "cle": 1605,
      "Ġadv": 1606,
      "Ġbuilt": 1607,
      "ĠUnited": 1608,
      "Ġnight": 1609,
      "Ġhundred": 1610,
      "Ġmonths": 1611,
      "ling": 1612,
      "Ġnews": 1613,
      "land": 1614,
      "Ġcouple": 1615,
      "ering": 1616,
      "Ġclass": 1617,
      "Ġorder": 1618,
      "Ġentire": 1619,
      "Ġbeautiful": 1620,
      "uck": 1621,
      "ex": 1622,
      "Ġaff": 1623,
      "Ġindivid": 1624,
      "Ġfriends": 1625,
      "Ġcancer": 1626,
      "iddle": 1627,
      "bers": 1628,
      "Ġfull": 1629,
      "Ġface": 1630,
      "ĠTED": 1631,
      "Ġgovernment": 1632,
      "Ġ100": 1633,
      "bs": 1634,
      "Ġresult": 1635,
      "Ġpay": 1636,
      "Ġ30": 1637,
      "aper": 1638,
      "Ġmarket": 1639,
      "Ġgroup": 1640,
      "Ġlanguage": 1641,
      "Ġmust": 1642,
      "Ġincre": 1643,
      "Ġgirl": 1644,
      "ives": 1645,
      "Ġtre": 1646,
      "Ġfil": 1647,
      "Ġpiece": 1648,
      "line": 1649,
      "Ġnet": 1650,
      "get": 1651,
      "to": 1652,
      "Ġ6": 1653,
      "Ġfollow": 1654,
      "Ġstate": 1655,
      "Ġspecies": 1656,
      "Ġplaces": 1657,
      "Ġ50": 1658,
      "Ġisn": 1659,
      "Ġdeep": 1660,
      "All": 1661,
      "up": 1662,
      "Ġmaterial": 1663,
      "Ġsec": 1664,
      "Ġfront": 1665,
      "Ġindividual": 1666,
      "Ġvir": 1667,
      "Ġview": 1668,
      "Ġeverybody": 1669,
      "Ġwasn": 1670,
      "Ġvideo": 1671,
      "Ġuntil": 1672,
      "ustr": 1673,
      "atic": 1674,
      "Ġappro": 1675,
      "Ġconst": 1676,
      "ired": 1677,
      "ator": 1678,
      "ush": 1679,
      "Ġdecided": 1680,
      "Ġpast": 1681,
      "ny": 1682,
      "Ġdra": 1683,
      "Ġeducation": 1684,
      "Ġcompletely": 1685,
      "ĠInternet": 1686,
      "Ġline": 1687,
      "eah": 1688,
      "Ġquick": 1689,
      "Ġbehav": 1690,
      "ron": 1691,
      "Ġuniverse": 1692,
      "Ġinn": 1693,
      "Ġdi": 1694,
      "Ġtrain": 1695,
      "No": 1696,
      "Ġcra": 1697,
      "outh": 1698,
      "omes": 1699,
      "ĠIs": 1700,
      "Ġret": 1701,
      "Ġstudy": 1702,
      "ane": 1703,
      "Ġobject": 1704,
      "Ġstories": 1705,
      "Ġterr": 1706,
      "Ġnature": 1707,
      "Ġexactly": 1708,
      "cing": 1709,
      "ined": 1710,
      "Ġbecame": 1711,
      "ĠStates": 1712,
      "Ġdeal": 1713,
      "Ġthough": 1714,
      "ental": 1715,
      "Ġfree": 1716,
      "br": 1717,
      "Ġ'": 1718,
      "Ġname": 1719,
      "Ġabs": 1720,
      "Ġsca": 1721,
      "Ġtaking": 1722,
      "Ġhappening": 1723,
      "Ġstudents": 1724,
      "Ġanimals": 1725,
      "Ġtool": 1726,
      "Ġ9": 1727,
      "Ġmess": 1728,
      "Ġhuge": 1729,
      "Ġfund": 1730,
      "end": 1731,
      "Ġpos": 1732,
      "Ġland": 1733,
      "Ġknew": 1734,
      "Ġkinds": 1735,
      "ĠThey": 1736,
      "Ġitself": 1737,
      "Ġexperim": 1738,
      "acter": 1739,
      "Ġoce": 1740,
      "Ġcollect": 1741,
      "Ġlaw": 1742,
      "ters": 1743,
      "Ġsomebody": 1744,
      "Ġstruct": 1745,
      "ien": 1746,
      "Ġourselves": 1747,
      "Ġwoman": 1748,
      "Ġlearned": 1749,
      "Ġengine": 1750,
      "ats": 1751,
      "ision": 1752,
      "gest": 1753,
      "Ġsince": 1754,
      "ients": 1755,
      "ogn": 1756,
      "Ġsociety": 1757,
      "Ġhouse": 1758,
      "Ġris": 1759,
      "Ġsuccess": 1760,
      "Ġ[": 1761,
      "ional": 1762,
      "dd": 1763,
      "Ġclose": 1764,
      "Ġminutes": 1765,
      "etic": 1766,
      "Ġgets": 1767,
      "ret": 1768,
      "Ġdru": 1769,
      "haps": 1770,
      "omet": 1771,
      "rop": 1772,
      "Ġspend": 1773,
      "Ġcomplex": 1774,
      "Ġcompany": 1775,
      "sy": 1776,
      "Ġquestions": 1777,
      "cc": 1778,
      "Ġthemselves": 1779,
      "Ġz": 1780,
      "icult": 1781,
      "Ġalong": 1782,
      "Ġturns": 1783,
      "Ġmass": 1784,
      "itting": 1785,
      "Ġav": 1786,
      "ability": 1787,
      "Ġagainst": 1788,
      "ocus": 1789,
      "cl": 1790,
      "Ġmeet": 1791,
      "Ġrelations": 1792,
      "thers": 1793,
      "Ġmic": 1794,
      "ĠIndia": 1795,
      "Ġhours": 1796,
      "Ġgame": 1797,
      "ĠAmerica": 1798,
      "Ġopportun": 1799,
      "ctor": 1800,
      "Ġones": 1801,
      "Ġprov": 1802,
      "Ġrather": 1803,
      "Then": 1804,
      "Ġcreated": 1805,
      "Ġbott": 1806,
      "Ġfly": 1807,
      "ibly": 1808,
      "ĠThis": 1809,
      "ĠThank": 1810,
      "urs": 1811,
      "ium": 1812,
      "...": 1813,
      "Ġclear": 1814,
      "face": 1815,
      "ature": 1816,
      "Ġparent": 1817,
      "aw": 1818,
      "Ġleast": 1819,
      "ĠHe": 1820,
      "Ġ7": 1821,
      "ĠThat": 1822,
      "Ġthird": 1823,
      "Ġfocus": 1824,
      "Ġexpect": 1825,
      "Ġcouldn": 1826,
      "Ġinvest": 1827,
      "Ġ8": 1828,
      "Ġwon": 1829,
      "Ġwind": 1830,
      "ames": 1831,
      "Ġmeas": 1832,
      "Ġguys": 1833,
      "ones": 1834,
      "Ġworked": 1835,
      "att": 1836,
      "Ġsometimes": 1837,
      "Ġpred": 1838,
      "Ġdifficult": 1839,
      "eg": 1840,
      "iversity": 1841,
      "ĠGod": 1842,
      "ming": 1843,
      "Ġmother": 1844,
      "Ġothers": 1845,
      "Ġ15": 1846,
      "Ġarch": 1847,
      "Ġthousands": 1848,
      "Ġvar": 1849,
      "Ġdisease": 1850,
      "Ġliter": 1851,
      "Ġearly": 1852,
      "Ġgave": 1853,
      "Ġprogram": 1854,
      "Ġill": 1855,
      "Ġhold": 1856,
      "Ġhappy": 1857,
      "Ġspeak": 1858,
      "cul": 1859,
      "istic": 1860,
      "ples": 1861,
      "Ġamount": 1862,
      "Ġsystems": 1863,
      "Ġnorm": 1864,
      "olved": 1865,
      "wards": 1866,
      "Ġlots": 1867,
      "Ġaud": 1868,
      "not": 1869,
      "illions": 1870,
      "Ġve": 1871,
      "Ġeveryone": 1872,
      "Ġinnov": 1873,
      "Ġinstead": 1874,
      "app": 1875,
      "Ġmath": 1876,
      "Ġfield": 1877,
      "Ġteam": 1878,
      "Ġbab": 1879,
      "Ġsens": 1880,
      "erv": 1881,
      "ale": 1882,
      "ented": 1883,
      "Ġbehavior": 1884,
      "ither": 1885,
      "Ġexist": 1886,
      "ider": 1887,
      "Ġrad": 1888,
      "Ġ5": 1889,
      "Ġnatural": 1890,
      "Ġprotect": 1891,
      "Ġlisten": 1892,
      "iqu": 1893,
      "ove": 1894,
      "ination": 1895,
      "Ġmot": 1896,
      "Ġtaken": 1897,
      "ĠEuro": 1898,
      "ological": 1899,
      "ĠAmerican": 1900,
      "aking": 1901,
      "Ġoil": 1902,
      "Ġoutside": 1903,
      "fect": 1904,
      "ially": 1905,
      "Ġinteract": 1906,
      "Ġrelationship": 1907,
      "Ġmiss": 1908,
      "Ġcir": 1909,
      "ared": 1910,
      "Ġdifference": 1911,
      "Ġcut": 1912,
      "Ġshap": 1913,
      "ĠWhat": 1914,
      "Ġant": 1915,
      "ted": 1916,
      "Ġblack": 1917,
      "Ġrecord": 1918,
      "Every": 1919,
      "ĠBr": 1920,
      "Ġlearning": 1921,
      "Ġhy": 1922,
      "Ġrev": 1923,
      "Ġrecent": 1924,
      "Do": 1925,
      "Ġleg": 1926,
      "Ġchanged": 1927,
      "Ġmachine": 1928,
      "Ġoper": 1929,
      "Ġfail": 1930,
      "vered": 1931,
      "Ġextra": 1932,
      "ĠYork": 1933,
      "gen": 1934,
      "Ġseven": 1935,
      "Ġdeath": 1936,
      "uss": 1937,
      "ential": 1938,
      "Ġarea": 1939,
      "ĠChina": 1940,
      "Ġbro": 1941,
      "Ġcentury": 1942,
      "Ġstep": 1943,
      "Some": 1944,
      "Ġmiddle": 1945,
      "Ġsex": 1946,
      "Ġgreen": 1947,
      "ully": 1948,
      "Ġbeginning": 1949,
      "Ġpattern": 1950,
      "Ġpot": 1951,
      "Ġred": 1952,
      "sych": 1953,
      "ides": 1954,
      "iol": 1955,
      "Ġnetwork": 1956,
      "ĠEng": 1957,
      "Ġcommon": 1958,
      "ĠEurope": 1959,
      "Ġ...": 1960,
      "ased": 1961,
      "Ġstre": 1962,
      "Ġperhaps": 1963,
      "Ġmoving": 1964,
      "Ġgiven": 1965,
      "Ġeasy": 1966,
      "Ġeyes": 1967,
      "Or": 1968,
      "Ġyourself": 1969,
      "utions": 1970,
      "Ġhands": 1971,
      "Ġshort": 1972,
      "Ġda": 1973,
      "Ġleave": 1974,
      "NA": 1975,
      "orth": 1976,
      "Ġdel": 1977,
      "verage": 1978,
      "ĠâĢ": 1979,
      "Ġturned": 1980,
      "Ġnon": 1981,
      "Ġdep": 1982,
      "Ġterms": 1983,
      "Ġsym": 1984,
      "Ġlow": 1985,
      "Ġfish": 1986,
      "Ġincl": 1987,
      "Ġexplain": 1988,
      "Ġpopulation": 1989,
      "Ġes": 1990,
      "era": 1991,
      "ery": 1992,
      "Ġtakes": 1993,
      "Ġculture": 1994,
      "Ġcities": 1995,
      "itions": 1996,
      "olute": 1997,
      "Ġsent": 1998,
      "Ġneeds": 1999,
      "ump": 2000,
      "Ġtyp": 2001,
      "Ġocc": 2002,
      "Ġobvious": 2003,
      "Ġsupport": 2004,
      "Ġ12": 2005,
      "Ġlim": 2006,
      "Ġjour": 2007,
      "els": 2008,
      "elt": 2009,
      "ption": 2010,
      "Ġcolle": 2011,
      "Ġwonderful": 2012,
      "Ġchem": 2013,
      "Ġseeing": 2014,
      "ude": 2015,
      "Ġfinally": 2016,
      "Ġdig": 2017,
      "ĠAr": 2018,
      "ĠâĻª": 2019,
      "Ġbehind": 2020,
      "inary": 2021,
      "Ġpaper": 2022,
      "Ġintell": 2023,
      "astic": 2024,
      "jor": 2025,
      "ply": 2026,
      "Ġident": 2027,
      "ern": 2028,
      "aring": 2029,
      "iving": 2030,
      "ipp": 2031,
      "Ġbegan": 2032,
      "Ġpsych": 2033,
      "Ġimpro": 2034,
      "Ġcommunic": 2035,
      "Ġbreak": 2036,
      "Ġcannot": 2037,
      "Ġjo": 2038,
      "Ġpract": 2039,
      "Ġperform": 2040,
      "Ġparts": 2041,
      "Ġfriend": 2042,
      "idence": 2043,
      "Ġlocal": 2044,
      "rew": 2045,
      "Ġsaf": 2046,
      "Ġtrad": 2047,
      "Ġocean": 2048,
      "itch": 2049,
      "Ġeight": 2050,
      "Ġsqu": 2051,
      "Ġreach": 2052,
      "year": 2053,
      "Ġtot": 2054,
      "Ġduring": 2055,
      "Ġimage": 2056,
      "ges": 2057,
      "Ġblue": 2058,
      "Ġlonger": 2059,
      "ĠâĢĶ": 2060,
      "Ġpick": 2061,
      "Ġsuper": 2062,
      "Ġperfect": 2063,
      "Ġsimply": 2064,
      "ran": 2065,
      "Ġsun": 2066,
      "Ġtem": 2067,
      "Ġcompanies": 2068,
      "eople": 2069,
      "Ġrealized": 2070,
      "Ġextre": 2071,
      "Ġarg": 2072,
      "Ġpowerful": 2073,
      "Ġfall": 2074,
      "itect": 2075,
      "Ġfre": 2076,
      "Ġmajor": 2077,
      "Ġevent": 2078,
      "fully": 2079,
      "Ġneeded": 2080,
      "Ġaccess": 2081,
      "Ġstay": 2082,
      "cious": 2083,
      "ource": 2084,
      "Ġwall": 2085,
      "Ġdream": 2086,
      "ĠAl": 2087,
      "Ġdark": 2088,
      "port": 2089,
      "ĠBut": 2090,
      "Ġwhatever": 2091,
      "Ġess": 2092,
      "Ġweek": 2093,
      "Ġsize": 2094,
      "Ġconsum": 2095,
      "Ġ18": 2096,
      "Ġeconomic": 2097,
      "Ġspecial": 2098,
      "Ġfamil": 2099,
      "Ġserv": 2100,
      "Ġrepres": 2101,
      "ax": 2102,
      "Ġtried": 2103,
      "Ġabsolute": 2104,
      "Ġparents": 2105,
      "ero": 2106,
      "ources": 2107,
      "Ġemot": 2108,
      "ton": 2109,
      "rodu": 2110,
      "Ġpoor": 2111,
      "Ġsurv": 2112,
      "Ġsurpr": 2113,
      "Ġinterested": 2114,
      "Ġpersonal": 2115,
      "Ġ40": 2116,
      "ony": 2117,
      "Ġmedia": 2118,
      "Ġpresent": 2119,
      "Ġgrand": 2120,
      "Ġfelt": 2121,
      "Ġreality": 2122,
      "Ġfeed": 2123,
      "gle": 2124,
      "ising": 2125,
      "Ġeat": 2126,
      "oh": 2127,
      "Ġpriv": 2128,
      "Ġbuy": 2129,
      "Ġple": 2130,
      "ledge": 2131,
      "Ġsitu": 2132,
      "Ġviol": 2133,
      "Ġemb": 2134,
      "On": 2135,
      "ison": 2136,
      "Ġground": 2137,
      "rought": 2138,
      "Ġquickly": 2139,
      "Ġpress": 2140,
      "ised": 2141,
      "Ġgone": 2142,
      "ilar": 2143,
      "Ġrecogn": 2144,
      "Ġscale": 2145,
      "ibility": 2146,
      "crib": 2147,
      "ards": 2148,
      "Ġstrong": 2149,
      "Ġarchitect": 2150,
      "bo": 2151,
      "hood": 2152,
      "inal": 2153,
      "rent": 2154,
      "Ġfather": 2155,
      "Ġyes": 2156,
      "Ġrobot": 2157,
      "Ġgrowth": 2158,
      "sh": 2159,
      "Ġge": 2160,
      "avor": 2161,
      "Ġability": 2162,
      "Ġconv": 2163,
      "Ġspent": 2164,
      "Ġkey": 2165,
      "Ġrequ": 2166,
      "Ġvalue": 2167,
      "Ġapproach": 2168,
      "Ġcal": 2169,
      "oph": 2170,
      "Ġhumans": 2171,
      "Ġweeks": 2172,
      "ged": 2173,
      "ived": 2174,
      "Ġfeet": 2175,
      "Ġshows": 2176,
      "ney": 2177,
      "osp": 2178,
      "Ġcool": 2179,
      "Ġdemoc": 2180,
      "Ġsitting": 2181,
      "Ġenc": 2182,
      "Ġanimal": 2183,
      "ills": 2184,
      "Ġopportunity": 2185,
      "ators": 2186,
      "room": 2187,
      "Ġknown": 2188,
      "ĠDNA": 2189,
      "At": 2190,
      "Ġpolitical": 2191,
      "orld": 2192,
      "Ġvers": 2193,
      "Ġnear": 2194,
      "Ġdisc": 2195,
      "Ġtravel": 2196,
      "Ġmult": 2197,
      "Ġeither": 2198,
      "ument": 2199,
      "Ġphone": 2200,
      "Ġdirect": 2201,
      "ev": 2202,
      "Ġciv": 2203,
      "izing": 2204,
      "Ġsum": 2205,
      "Ġfight": 2206,
      "Ġeconomy": 2207,
      "Ġpredict": 2208,
      "Not": 2209,
      "ler": 2210,
      "urb": 2211,
      "Ġlost": 2212,
      "Ġsurface": 2213,
      "unt": 2214,
      "Ġdest": 2215,
      "Ġorig": 2216,
      "Ġmeasure": 2217,
      "Oh": 2218,
      "Ġfear": 2219,
      "ift": 2220,
      "Ġareas": 2221,
      "Ġobs": 2222,
      "amp": 2223,
      "ologies": 2224,
      "Ġwrite": 2225,
      "Ġdraw": 2226,
      "ains": 2227,
      "Ġmorning": 2228,
      "ule": 2229,
      "Ġslow": 2230,
      "Ġrespons": 2231,
      "Ġincredible": 2232,
      "Ġstructure": 2233,
      "ĠBe": 2234,
      "Ġpost": 2235,
      "Ġleaders": 2236,
      "Ġmicro": 2237,
      "Ġbottom": 2238,
      "oll": 2239,
      "ĠSh": 2240,
      "ouch": 2241,
      "uth": 2242,
      "rom": 2243,
      "lect": 2244,
      "Ġextreme": 2245,
      "ĠOK": 2246,
      "Ġpatients": 2247,
      "Ġattention": 2248,
      "ral": 2249,
      "Ġhar": 2250,
      "uses": 2251,
      "Ġblood": 2252,
      "Ġphotograph": 2253,
      "Ġbased": 2254,
      "eed": 2255,
      "Ġap": 2256,
      "Ġpull": 2257,
      "Ġsoft": 2258,
      "Ġwouldn": 2259,
      "ression": 2260,
      "iny": 2261,
      "Ġnice": 2262,
      "Ġchanges": 2263,
      "Ġfoot": 2264,
      "Ġintern": 2265,
      "cially": 2266,
      "People": 2267,
      "ively": 2268,
      "bor": 2269,
      "zy": 2270,
      "Ġaverage": 2271,
      "Ġfast": 2272,
      "Ġnumbers": 2273,
      "Ġchallenge": 2274,
      "Is": 2275,
      "Ġevolution": 2276,
      "Ġrealize": 2277,
      "hor": 2278,
      "ales": 2279,
      "Ġmole": 2280,
      "Ġcy": 2281,
      "ode": 2282,
      "Ġimpact": 2283,
      "Ġprofess": 2284,
      "Ġpur": 2285,
      "Ġsend": 2286,
      "ustain": 2287,
      "dden": 2288,
      "Ġmar": 2289,
      "entially": 2290,
      "Ġbox": 2291,
      "Ġwin": 2292,
      "Ġsudden": 2293,
      "of": 2294,
      "Ġbrought": 2295,
      "Ġste": 2296,
      "Ġindust": 2297,
      "ateg": 2298,
      "ĠSe": 2299,
      "lt": 2300,
      "Okay": 2301,
      "anger": 2302,
      "Ġphysical": 2303,
      "Ġcrit": 2304,
      "Ġfeeling": 2305,
      "erm": 2306,
      "Ġsea": 2307,
      "Ġmeaning": 2308,
      "Ġborn": 2309,
      "Ġdeveloped": 2310,
      "com": 2311,
      "Ġrelig": 2312,
      "Ġrisk": 2313,
      "Ġredu": 2314,
      "Ġcomb": 2315,
      "Ġbene": 2316,
      "Ġanal": 2317,
      "ows": 2318,
      "Ġrock": 2319,
      "Ġdie": 2320,
      "Ġinsp": 2321,
      "Ġgrowing": 2322,
      "ole": 2323,
      "acy": 2324,
      "Ġexperiment": 2325,
      "eng": 2326,
      "Ġknowledge": 2327,
      "To": 2328,
      "bon": 2329,
      "Ġseems": 2330,
      "Ġforward": 2331,
      "Ġmov": 2332,
      "Ġwrote": 2333,
      "Ġbooks": 2334,
      "ey": 2335,
      "lu": 2336,
      "Ġrunning": 2337,
      "Ġgiving": 2338,
      "Ġliterally": 2339,
      "Ġtheory": 2340,
      "Ġopt": 2341,
      "Ġforce": 2342,
      "Ġtechnologies": 2343,
      "Ġinstit": 2344,
      "An": 2345,
      "ging": 2346,
      "Ġdeg": 2347,
      "Ġfac": 2348,
      "Ġmain": 2349,
      "Ġcirc": 2350,
      "Ch": 2351,
      "ext": 2352,
      "Ġrele": 2353,
      "ified": 2354,
      "Ġfundam": 2355,
      "ĠChr": 2356,
      "Ġfilm": 2357,
      "ances": 2358,
      "Ġwhite": 2359,
      "Ġstra": 2360,
      "Ġvol": 2361,
      "Ġspread": 2362,
      "vent": 2363,
      "ored": 2364,
      "Ġclimate": 2365,
      "leep": 2366,
      "ned": 2367,
      "Ġast": 2368,
      "Ġhor": 2369,
      "Ġrepl": 2370,
      "chie": 2371,
      "Ġmap": 2372,
      "Ġunderstanding": 2373,
      "Ġmedic": 2374,
      "Ġscientists": 2375,
      "ĠEnglish": 2376,
      "Ġsimilar": 2377,
      "Ġelectric": 2378,
      "Ġhundreds": 2379,
      "cr": 2380,
      "Ġfavor": 2381,
      "Ġneigh": 2382,
      "Ġstarting": 2383,
      "Ġmiles": 2384,
      "oon": 2385,
      "Ġdepe": 2386,
      "Ġanyone": 2387,
      "CA": 2388,
      "par": 2389,
      "Ġworth": 2390,
      "aged": 2391,
      "Ġprin": 2392,
      "ug": 2393,
      "Ġvill": 2394,
      "ĠThere": 2395,
      "Ġserious": 2396,
      "Ġgives": 2397,
      "ggest": 2398,
      "Ġcolor": 2399,
      "Ġcivil": 2400,
      "chan": 2401,
      "Ġimages": 2402,
      "Ġaudience": 2403,
      "Ġball": 2404,
      "Ġmillions": 2405,
      "ĠWorld": 2406,
      "Ġcurrent": 2407,
      "Our": 2408,
      "omen": 2409,
      "Ġalone": 2410,
      "Ġtele": 2411,
      "Ġsuggest": 2412,
      "Ġtelling": 2413,
      "Ġtools": 2414,
      "Ġhot": 2415,
      "Ġsoon": 2416,
      "Ġthank": 2417,
      "Ġcompet": 2418,
      "Ġguess": 2419,
      "por": 2420,
      "assion": 2421,
      "Ġdescrib": 2422,
      "ades": 2423,
      "Ġtradition": 2424,
      "Ġice": 2425,
      "icy": 2426,
      "Ġsil": 2427,
      "Ġprom": 2428,
      "ploy": 2429,
      "Ġnormal": 2430,
      "Ġproper": 2431,
      "Ġtext": 2432,
      "Ġflo": 2433,
      "ĠTh": 2434,
      "Ġcars": 2435,
      "Ġhosp": 2436,
      "Ġpath": 2437,
      "racy": 2438,
      "ilities": 2439,
      "Ġdead": 2440,
      "Ġissue": 2441,
      "Ġavail": 2442,
      "iet": 2443,
      "Ġsho": 2444,
      "ensive": 2445,
      "Ġrul": 2446,
      "Ġcenter": 2447,
      "Where": 2448,
      "Ġinclud": 2449,
      "ites": 2450,
      "ĠAs": 2451,
      "iant": 2452,
      "Ġplaying": 2453,
      "Ġcreating": 2454,
      "Ġdevelopment": 2455,
      "Ġdiscovered": 2456,
      "bit": 2457,
      "Ġsustain": 2458,
      "Ġlif": 2459,
      "Ġseem": 2460,
      "Ġamong": 2461,
      "Ġtype": 2462,
      "Ġaffect": 2463,
      "Ġshowed": 2464,
      "Ġstat": 2465,
      "Ġstage": 2466,
      "Ġsuff": 2467,
      "head": 2468,
      "Ġmovement": 2469,
      "Ġconcept": 2470,
      "ai": 2471,
      "Ġaren": 2472,
      "Ġroad": 2473,
      "Ġmodern": 2474,
      "ped": 2475,
      "amed": 2476,
      "Ġvisual": 2477,
      "Ġabsolutely": 2478,
      "Ġest": 2479,
      "Ġtouch": 2480,
      "Just": 2481,
      "Ġsell": 2482,
      "pecially": 2483,
      "Ġrecently": 2484,
      "Ġer": 2485,
      "Ġsn": 2486,
      "Ġcop": 2487,
      "asing": 2488,
      "imens": 2489,
      "by": 2490,
      "oud": 2491,
      "Ġpoll": 2492,
      "iod": 2493,
      "Ġdeveloping": 2494,
      "Ġcamp": 2495,
      "Ġindustry": 2496,
      "Ġintellig": 2497,
      "Ġonline": 2498,
      "Ġtrack": 2499,
      "Ġhon": 2500,
      "Ġarm": 2501,
      "Ġtalked": 2502,
      "ĠWell": 2503,
      "Ġachie": 2504,
      "Ġfu": 2505,
      "urity": 2506,
      "oose": 2507,
      "Ġchance": 2508,
      "ique": 2509,
      "Ġprop": 2510,
      "Ġtruth": 2511,
      "ĠSouth": 2512,
      "Ġresources": 2513,
      "Ġincredibly": 2514,
      "Ġsong": 2515,
      "Ġconvers": 2516,
      "Ġissues": 2517,
      "like": 2518,
      "Ġreact": 2519,
      "Ġasking": 2520,
      "Ġarr": 2521,
      "Ġtransform": 2522,
      "Ġpatient": 2523,
      "Ġreasons": 2524,
      "Ġsubject": 2525,
      "erence": 2526,
      "Ġvoice": 2527,
      "ished": 2528,
      "Ġexperien": 2529,
      "Ġmathem": 2530,
      "Ġshape": 2531,
      "Ġfur": 2532,
      "lear": 2533,
      "Ġbenef": 2534,
      "Ġlay": 2535,
      "Ġproduce": 2536,
      "Ġinnovation": 2537,
      "ĠZ": 2538,
      "Ġknows": 2539,
      "ival": 2540,
      "Ġavailable": 2541,
      "phere": 2542,
      "Ġbra": 2543,
      "asc": 2544,
      "Ġrate": 2545,
      "Ġperiod": 2546,
      "Ġsolution": 2547,
      "Ġsold": 2548,
      "Ġmechan": 2549,
      "apt": 2550,
      "Ġinvolved": 2551,
      "Ġfire": 2552,
      "Ġhaven": 2553,
      "ung": 2554,
      "Ġevidence": 2555,
      "ĠNo": 2556,
      "Ġattack": 2557,
      "Ġsave": 2558,
      "ĠHow": 2559,
      "Ġsituation": 2560,
      "St": 2561,
      "Ġ25": 2562,
      "Ġtiny": 2563,
      "ency": 2564,
      "Ġchoice": 2565,
      "abor": 2566,
      "iction": 2567,
      "Ġdesigned": 2568,
      "Ġeye": 2569,
      "Ġflu": 2570,
      "Ġflow": 2571,
      "Ġsolve": 2572,
      "Ġpictures": 2573,
      "Ġneur": 2574,
      "ister": 2575,
      "Ġdin": 2576,
      "yond": 2577,
      "Ġbecomes": 2578,
      "Ġespecially": 2579,
      "ences": 2580,
      "Ġdou": 2581,
      "Ġcompassion": 2582,
      "Ġchanging": 2583,
      "ify": 2584,
      "Ġsearch": 2585,
      "Ġmessage": 2586,
      "Ġbigger": 2587,
      "Ġbaby": 2588,
      "Ġ199": 2589,
      "Ġcomputers": 2590,
      "ĠChinese": 2591,
      "ik": 2592,
      "pan": 2593,
      "arily": 2594,
      "Ġexcept": 2595,
      "Ġclos": 2596,
      "Ġcarbon": 2597,
      "Ġstreet": 2598,
      "Ġputting": 2599,
      "light": 2600,
      "Ġult": 2601,
      "Ġunf": 2602,
      "Ġsmart": 2603,
      "Ġsleep": 2604,
      "Ġimm": 2605,
      "Ġfunction": 2606,
      "Ġfair": 2607,
      "Ġlived": 2608,
      "Ġemp": 2609,
      "Ġemerg": 2610,
      "Ġwriting": 2611,
      "Ġnuc": 2612,
      "istan": 2613,
      "Ġgroups": 2614,
      "Can": 2615,
      "lict": 2616,
      "oices": 2617,
      "Ġbird": 2618,
      "Ġsever": 2619,
      "Ġtrust": 2620,
      "Ġmedical": 2621,
      "Ġlikely": 2622,
      "Ġgirls": 2623,
      "Ġbed": 2624,
      "Ġdrive": 2625,
      "pid": 2626,
      "Ġtable": 2627,
      "Ġforest": 2628,
      "Ġsat": 2629,
      "Ġce": 2630,
      "Ġdied": 2631,
      "str": 2632,
      "ĠCan": 2633,
      "ishing": 2634,
      "Ġbeyond": 2635,
      "Ġgeneral": 2636,
      "Ġsoftware": 2637,
      "Ġ60": 2638,
      "Ġbacter": 2639,
      "Ġtowards": 2640,
      "Ġdom": 2641,
      "Ġnine": 2642,
      "aybe": 2643,
      "Ġnecess": 2644,
      "Ġlea": 2645,
      "Ġsounds": 2646,
      "oogle": 2647,
      "Ġsolar": 2648,
      "Ġrules": 2649,
      "Ġbar": 2650,
      "oring": 2651,
      "ctors": 2652,
      "umb": 2653,
      "Ġtend": 2654,
      "Ġreport": 2655,
      "ips": 2656,
      "Ġprim": 2657,
      "Ġgeneration": 2658,
      "Ġaw": 2659,
      "Ġmount": 2660,
      "Ġdefin": 2661,
      "Ġdevice": 2662,
      "Ġseveral": 2663,
      "pre": 2664,
      "Ġrain": 2665,
      "Ġpeace": 2666,
      "ressed": 2667,
      "fort": 2668,
      "nam": 2669,
      "usion": 2670,
      "Ġplant": 2671,
      "ously": 2672,
      "Ġdrugs": 2673,
      "lo": 2674,
      "Ġwish": 2675,
      "Ġdanger": 2676,
      "Ġrich": 2677,
      "Ġbreat": 2678,
      "Ġspeed": 2679,
      "Ġparticularly": 2680,
      "Ġrevolution": 2681,
      "With": 2682,
      "how": 2683,
      "ina": 2684,
      "Ġfa": 2685,
      "Ġanybody": 2686,
      "Ġconscious": 2687,
      "oms": 2688,
      "Ġcapital": 2689,
      "Ġdrug": 2690,
      "Ġsafe": 2691,
      "used": 2692,
      "une": 2693,
      "Ġquality": 2694,
      "Ġsyn": 2695,
      "Ġblock": 2696,
      "By": 2697,
      "oun": 2698,
      "Ġec": 2699,
      "Ġmoved": 2700,
      "Who": 2701,
      "Ġonto": 2702,
      "vert": 2703,
      "Ġcharacter": 2704,
      "medi": 2705,
      "Ġextraord": 2706,
      "ief": 2707,
      "Ġaction": 2708,
      "Ġoffice": 2709,
      "book": 2710,
      "ground": 2711,
      "rast": 2712,
      "xy": 2713,
      "Ġfem": 2714,
      "Ġgames": 2715,
      "Ġrece": 2716,
      "Ġbasic": 2717,
      "Ġschools": 2718,
      "Ġpotential": 2719,
      "ires": 2720,
      "view": 2721,
      "Ġaf": 2722,
      "Ġstru": 2723,
      "Ġneg": 2724,
      "Ġlink": 2725,
      "Ġprinci": 2726,
      "Ġshowing": 2727,
      "ĠFr": 2728,
      "Ġexamples": 2729,
      "come": 2730,
      "Ġhit": 2731,
      "idge": 2732,
      "pped": 2733,
      "Ġwalking": 2734,
      "Ġobviously": 2735,
      "Ġcertainly": 2736,
      "iar": 2737,
      "uly": 2738,
      "Ġlog": 2739,
      "irth": 2740,
      "Ġvision": 2741,
      "Ġmaterials": 2742,
      "Ġjourney": 2743,
      "Ġpa": 2744,
      "ĠAn": 2745,
      "Ġfurther": 2746,
      "oke": 2747,
      "Ġscientific": 2748,
      "ask": 2749,
      "the": 2750,
      "Ġtotally": 2751,
      "Man": 2752,
      "ners": 2753,
      "Ġdiv": 2754,
      "Ġcontext": 2755,
      "Al": 2756,
      "here": 2757,
      "Ġaware": 2758,
      "Ġep": 2759,
      "Ġwants": 2760,
      "ores": 2761,
      "Ġstarts": 2762,
      "Ġprojects": 2763,
      "Ġchemical": 2764,
      "ma": 2765,
      "Ġnational": 2766,
      "Ġnobody": 2767,
      "Ġbiggest": 2768,
      "Ġscreen": 2769,
      "Ġeffic": 2770,
      "Ġlargest": 2771,
      "Ġexciting": 2772,
      "onse": 2773,
      "Ġgas": 2774,
      "Ġgal": 2775,
      "igher": 2776,
      "Ġextremely": 2777,
      "ought": 2778,
      "Ġfix": 2779,
      "ĠPh": 2780,
      "Ġstudent": 2781,
      "tend": 2782,
      "Ġteachers": 2783,
      "put": 2784,
      "verty": 2785,
      "Ġdoor": 2786,
      "Ġeverywhere": 2787,
      "ĠGoogle": 2788,
      "Ġaccount": 2789,
      "Ġfundamental": 2790,
      "Ġparticip": 2791,
      "Ġresults": 2792,
      "uit": 2793,
      "Look": 2794,
      "eter": 2795,
      "Ġactiv": 2796,
      "Ġadm": 2797,
      "Ġfarm": 2798,
      "Ġmemory": 2799,
      "Ġvirt": 2800,
      "Ġdigital": 2801,
      "Ġokay": 2802,
      "Ġhigher": 2803,
      "Ġmeant": 2804,
      "antly": 2805,
      "Ġdetail": 2806,
      "Ġrepresent": 2807,
      "Ġneighbor": 2808,
      "itiz": 2809,
      "cient": 2810,
      "Ġcamera": 2811,
      "Ġson": 2812,
      "Ġnotice": 2813,
      "Ġcarry": 2814,
      "itary": 2815,
      "eth": 2816,
      "Ġcomplic": 2817,
      "Maybe": 2818,
      "Ġpositive": 2819,
      "Ġapart": 2820,
      "Of": 2821,
      "ĠNow": 2822,
      "Ġcross": 2823,
      "icle": 2824,
      "apan": 2825,
      "Ġrole": 2826,
      "Ġskin": 2827,
      "oming": 2828,
      "Ġhappiness": 2829,
      "Ġthousand": 2830,
      "Ġcontinue": 2831,
      "more": 2832,
      "Ġtrial": 2833,
      "Ġsupposed": 2834,
      "Ġviolence": 2835,
      "Yes": 2836,
      "for": 2837,
      "Ġled": 2838,
      "itten": 2839,
      "Ġresponse": 2840,
      "Ġsecurity": 2841,
      "Ġ80": 2842,
      "ohn": 2843,
      "Ġpu": 2844,
      "Ġintrodu": 2845,
      "Ġclean": 2846,
      "Ġjobs": 2847,
      "Ġthreat": 2848,
      "Ġmob": 2849,
      "Ġboy": 2850,
      "Ġconflict": 2851,
      "Ġbirth": 2852,
      "Ġnamed": 2853,
      "Ġspir": 2854,
      "ĠNorth": 2855,
      "Ġfavorite": 2856,
      "isions": 2857,
      "osphere": 2858,
      "Ġpoverty": 2859,
      "Ġcheck": 2860,
      "Ġtrees": 2861,
      "Ġeventually": 2862,
      "Ġdemocracy": 2863,
      "Ġdepend": 2864,
      "rest": 2865,
      "ids": 2866,
      "Ġstick": 2867,
      "ĠDe": 2868,
      "Ġadult": 2869,
      "Ġready": 2870,
      "Ġcapt": 2871,
      "Ġconnected": 2872,
      "Ġindividuals": 2873,
      "Ġimprove": 2874,
      "aur": 2875,
      "iation": 2876,
      "Ġfill": 2877,
      "ann": 2878,
      "Ġsepar": 2879,
      "Ġvac": 2880,
      "ruction": 2881,
      "Ġconsider": 2882,
      "Ġcris": 2883,
      "Ġearl": 2884,
      "ughter": 2885,
      "Ġbunch": 2886,
      "Ġdro": 2887,
      "Ġsequ": 2888,
      "Ġgraph": 2889,
      "Ġterror": 2890,
      "mb": 2891,
      "Ġtar": 2892,
      "Ġcitiz": 2893,
      "agn": 2894,
      "ossible": 2895,
      "Ġtransl": 2896,
      "ĠBrit": 2897,
      "Ġfant": 2898,
      "ulate": 2899,
      "Ġprogress": 2900,
      "Ġmodels": 2901,
      "Ġwatching": 2902,
      "urban": 2903,
      "Ġactivity": 2904,
      "Ġminds": 2905,
      "mend": 2906,
      "Ġdiscover": 2907,
      "Ġessentially": 2908,
      "IV": 2909,
      "Ġfaster": 2910,
      "ims": 2911,
      "iger": 2912,
      "Ġtells": 2913,
      "akes": 2914,
      "ĠWest": 2915,
      "ĠJapan": 2916,
      "Ġcause": 2917,
      "Ġcrazy": 2918,
      "After": 2919,
      "Ġpen": 2920,
      "iding": 2921,
      "rad": 2922,
      "Ġann": 2923,
      "Ġmagn": 2924,
      ".,": 2925,
      "ze": 2926,
      "Ġplants": 2927,
      "odies": 2928,
      "Ġperspect": 2929,
      "Ġlose": 2930,
      "Ġgrew": 2931,
      "Ġimmedi": 2932,
      "ĠCal": 2933,
      "conds": 2934,
      "Ġreturn": 2935,
      "joy": 2936,
      "erve": 2937,
      "Ġwebs": 2938,
      "Ġworse": 2939,
      "Ġconcer": 2940,
      "Ġclin": 2941,
      "Ġcommunities": 2942,
      "Ġassum": 2943,
      "Ġconditions": 2944,
      "Ġsuddenly": 2945,
      "Ġmovie": 2946,
      "Ġvillage": 2947,
      "Ġmathemat": 2948,
      "Ġmine": 2949,
      "Ġpush": 2950,
      "Ġshown": 2951,
      "Ġdisapp": 2952,
      "ounds": 2953,
      "Ġaccept": 2954,
      "ortunately": 2955,
      "iers": 2956,
      "Ġgoal": 2957,
      "Ġ16": 2958,
      "Ġbrains": 2959,
      "Ġcreative": 2960,
      "Ġnuclear": 2961,
      "First": 2962,
      "Ġsource": 2963,
      "lex": 2964,
      "Ġbuildings": 2965,
      "Ġstrateg": 2966,
      "Ġmeth": 2967,
      "Ġobjects": 2968,
      "Ġgalax": 2969,
      "OK": 2970,
      "Ġbom": 2971,
      "ĠHIV": 2972,
      "Ġappear": 2973,
      "Ġindeed": 2974,
      "Ġcollabor": 2975,
      "Ġhospital": 2976,
      "Ġwaste": 2977,
      "Ġchoose": 2978,
      "Ġsorts": 2979,
      "Ġlaunch": 2980,
      "Ġcart": 2981,
      "Ġ11": 2982,
      "Ġpublish": 2983,
      "Ġpassion": 2984,
      "Ġcolleag": 2985,
      "Ġlate": 2986,
      "Ġsomewhere": 2987,
      "ipt": 2988,
      "Ġfinding": 2989,
      "Ġremark": 2990,
      "ring": 2991,
      "Ġsite": 2992,
      "cape": 2993,
      "Ġimpossible": 2994,
      "Ġphen": 2995,
      "Ġextraordinary": 2996,
      "nces": 2997,
      "atory": 2998,
      "Ġmarr": 2999,
      "Ġlands": 3000,
      "let": 3001,
      "Ġlarger": 3002,
      "Ġteacher": 3003,
      "Ġlabor": 3004,
      "inct": 3005,
      "Ġsand": 3006,
      "Ġ201": 3007,
      "ĠAfrican": 3008,
      "Ġmedicine": 3009,
      "cise": 3010,
      "ana": 3011,
      "Ġabove": 3012,
      "Ġminute": 3013,
      "Any": 3014,
      "ror": 3015,
      "estern": 3016,
      "Ġ14": 3017,
      "Ġtaught": 3018,
      "Ġkilled": 3019,
      "Most": 3020,
      "ued": 3021,
      "Ġforms": 3022,
      "Ġdoctor": 3023,
      "Ġdeb": 3024,
      "Ġenjoy": 3025,
      "Ġsignific": 3026,
      "Ġallowed": 3027,
      "ech": 3028,
      "wo": 3029,
      "Ġblind": 3030,
      "others": 3031,
      "Ġdetect": 3032,
      "Ġproducts": 3033,
      "Ġsky": 3034,
      "Ġinflu": 3035,
      "Ġincluding": 3036,
      "Ġcomplicated": 3037,
      "nal": 3038,
      "Ġwife": 3039,
      "Ġmis": 3040,
      "sect": 3041,
      "rage": 3042,
      "Ġphil": 3043,
      "Ġcat": 3044,
      "izations": 3045,
      "Ġended": 3046,
      "Ġtemper": 3047,
      "Ġfine": 3048,
      "Ġdam": 3049,
      "ster": 3050,
      "though": 3051,
      "Ġheav": 3052,
      "ured": 3053,
      "Ġusually": 3054,
      "Ġcases": 3055,
      "urt": 3056,
      "amm": 3057,
      "Ġallows": 3058,
      "Ġincrease": 3059,
      "Ġbal": 3060,
      "Ġtruly": 3061,
      "Ġ17": 3062,
      "Ġmanage": 3063,
      "Ġunivers": 3064,
      "Ġstudies": 3065,
      "ission": 3066,
      "Ġposition": 3067,
      "Ġdiscuss": 3068,
      "Ġtraditional": 3069,
      "Ġphenomen": 3070,
      "Ġbank": 3071,
      "Ġburn": 3072,
      "Ġalive": 3073,
      "oday": 3074,
      "ologists": 3075,
      "Ġearth": 3076,
      "Ġafford": 3077,
      "Ġtraining": 3078,
      "ining": 3079,
      "Ġmist": 3080,
      "Ġfing": 3081,
      "rap": 3082,
      "Ġexcited": 3083,
      "Ġfamilies": 3084,
      "!\"": 3085,
      "Even": 3086,
      "Ġwild": 3087,
      "Ġoxy": 3088,
      "Ġpack": 3089,
      "ffic": 3090,
      "Ġbeings": 3091,
      "Ġpoints": 3092,
      "Ġmoral": 3093,
      "Ġdecision": 3094,
      "Ġolder": 3095,
      "Ġdistrib": 3096,
      "Ġstanding": 3097,
      "Ġauthor": 3098,
      "Ġsuccessful": 3099,
      "Ġinternational": 3100,
      "Im": 3101,
      "Ġfram": 3102,
      "edom": 3103,
      "Ġluck": 3104,
      "Ġstars": 3105,
      "useum": 3106,
      "Ġprice": 3107,
      "Ġprote": 3108,
      "Ġcritical": 3109,
      "Ġcard": 3110,
      "Ġmention": 3111,
      "Ġdy": 3112,
      "ĠAm": 3113,
      "Ġregion": 3114,
      "Ġwait": 3115,
      "Ġsquare": 3116,
      "ugh": 3117,
      "Ġthrow": 3118,
      "Ġdoc": 3119,
      "Ġkil": 3120,
      "Ġfinan": 3121,
      "Ġpurp": 3122,
      "po": 3123,
      "Ġbur": 3124,
      "Ġlower": 3125,
      "iven": 3126,
      "Ġcollege": 3127,
      "Ġelectricity": 3128,
      "Ġbacteria": 3129,
      "go": 3130,
      "Ġtree": 3131,
      "Ġlines": 3132,
      "Which": 3133,
      "Ġprison": 3134,
      "Ġreading": 3135,
      "Ġinfect": 3136,
      "Ġconversation": 3137,
      "Ġcrisis": 3138,
      "Don": 3139,
      "isms": 3140,
      "Ġupon": 3141,
      "Ġsomehow": 3142,
      "Ġcold": 3143,
      "Ġseries": 3144,
      "Ġengage": 3145,
      "Ġpieces": 3146,
      "Ġachieve": 3147,
      "Ġperspective": 3148,
      "inated": 3149,
      "rel": 3150,
      "Ġcook": 3151,
      "Ġfasc": 3152,
      "ĠIf": 3153,
      "ĠAll": 3154,
      "Ġprovide": 3155,
      "Ġpatterns": 3156,
      "Ġstraight": 3157,
      "ration": 3158,
      "ĠJohn": 3159,
      "Ġpolicy": 3160,
      "Ġhealthy": 3161,
      "Ġrespect": 3162,
      "Ġspecific": 3163,
      "fact": 3164,
      "la": 3165,
      "men": 3166,
      "Ġtrou": 3167,
      "Ġcode": 3168,
      "Ġstar": 3169,
      "ĠWar": 3170,
      "Ġsmaller": 3171,
      "ĠChrist": 3172,
      "Ġign": 3173,
      "Ġurban": 3174,
      "rect": 3175,
      "Ġpan": 3176,
      "Ġseconds": 3177,
      "soci": 3178,
      "Ġkept": 3179,
      "Ġphysics": 3180,
      "Ġenorm": 3181,
      "Ġquant": 3182,
      "Ġrights": 3183,
      "Ġwritten": 3184,
      "Ġoccur": 3185,
      "Ġhop": 3186,
      "Ġfra": 3187,
      "Ġprint": 3188,
      "ĠPr": 3189,
      "ĠTV": 3190,
      "Ġbiology": 3191,
      "Ġrecognize": 3192,
      "Ġneurons": 3193,
      "âĻ": 3194,
      "Ġtown": 3195,
      "agine": 3196,
      "Ġanywhere": 3197,
      "Ġcontent": 3198,
      "Ġslight": 3199,
      "Ġorganization": 3200,
      "Ġtreatment": 3201,
      "Ġpage": 3202,
      "ently": 3203,
      "rab": 3204,
      "Ġhimself": 3205,
      "Ġterm": 3206,
      "Ġrobots": 3207,
      "Ġversion": 3208,
      "Ġsou": 3209,
      "Ġswe": 3210,
      "imb": 3211,
      "ama": 3212,
      "Ġactual": 3213,
      "Ġroll": 3214,
      "Ġmilitary": 3215,
      "Ġcalcul": 3216,
      "ping": 3217,
      "Ġsal": 3218,
      "Ġweight": 3219,
      "ays": 3220,
      "Ġdoctors": 3221,
      "Ġanymore": 3222,
      "ube": 3223,
      "Ġincreasing": 3224,
      "cies": 3225,
      "iced": 3226,
      "ops": 3227,
      "ĠEast": 3228,
      "Ġboard": 3229,
      "Ġ198": 3230,
      "Ġplease": 3231,
      "Ġmolec": 3232,
      "dom": 3233,
      "Ġdog": 3234,
      "ustrial": 3235,
      "Ġservice": 3236,
      "Ġarchitecture": 3237,
      "ĠGe": 3238,
      "epend": 3239,
      "Ġeffort": 3240,
      "met": 3241,
      "Ġbodies": 3242,
      "Ġgenes": 3243,
      "Ġrespond": 3244,
      "Ġaddress": 3245,
      "erman": 3246,
      "Ġwhe": 3247,
      "uments": 3248,
      "Ġtrick": 3249,
      "ĠMan": 3250,
      "Ġcontrib": 3251,
      "Ġemploy": 3252,
      "ĠIsl": 3253,
      "Ġveh": 3254,
      "Today": 3255,
      "iling": 3256,
      "aging": 3257,
      "Ġtransport": 3258,
      "bol": 3259,
      "back": 3260,
      "zz": 3261,
      "Ġport": 3262,
      "Ġweb": 3263,
      "ulf": 3264,
      "Ġstrange": 3265,
      "Ġmagic": 3266,
      "Ġearlier": 3267,
      "Ġlegs": 3268,
      "Ġgreater": 3269,
      "Ġbecoming": 3270,
      "Ġmachines": 3271,
      "Ġpainting": 3272,
      "Ġprivate": 3273,
      "ried": 3274,
      "Those": 3275,
      "Ġloved": 3276,
      "Ġemail": 3277,
      "Ġdecisions": 3278,
      "Ġpolice": 3279,
      "ĠAfgh": 3280,
      "Ġskills": 3281,
      "time": 3282,
      "Ġcatch": 3283,
      "Ġyeah": 3284,
      "Ġeth": 3285,
      "thern": 3286,
      "Ġwilling": 3287,
      "Ġdesp": 3288,
      "Ġremind": 3289,
      "Ġclearly": 3290,
      "Ġlistening": 3291,
      "itation": 3292,
      "rams": 3293,
      "oles": 3294,
      "Ġ13": 3295,
      "Ġweren": 3296,
      "Ġthroughout": 3297,
      "Ġglass": 3298,
      "lebr": 3299,
      "erson": 3300,
      "ĠSw": 3301,
      "Ġexpensive": 3302,
      "ĠPro": 3303,
      "Ġlaugh": 3304,
      "Ġfamiliar": 3305,
      "oes": 3306,
      "Ġsam": 3307,
      "aries": 3308,
      "Ġcomfort": 3309,
      "Ġshot": 3310,
      "Ġjump": 3311,
      "Ġfamous": 3312,
      "itude": 3313,
      "Ġmental": 3314,
      "Ġworry": 3315,
      "Ġtherefore": 3316,
      "Ġspect": 3317,
      "Ġunique": 3318,
      "Ġ21": 3319,
      "ĠLe": 3320,
      "acity": 3321,
      "Ġdrink": 3322,
      "Ġsolutions": 3323,
      "ĠYeah": 3324,
      "bb": 3325,
      "ĠCar": 3326,
      "ĠBra": 3327,
      "Ġcloud": 3328,
      "ĠAmericans": 3329,
      "Ġcosts": 3330,
      "inating": 3331,
      "Ġstore": 3332,
      "Ġexh": 3333,
      "Ġalg": 3334,
      "Ġproduction": 3335,
      "Ġexplore": 3336,
      "Ġsociet": 3337,
      "Ġ90": 3338,
      "Ġstrugg": 3339,
      "aly": 3340,
      "sequ": 3341,
      "Ġforth": 3342,
      "Ġdeterm": 3343,
      "Ġlevels": 3344,
      "Ġwebsite": 3345,
      "Ġthr": 3346,
      "enn": 3347,
      "Ġpark": 3348,
      "ceed": 3349,
      "Ġrid": 3350,
      "Ġgenetic": 3351,
      "Ġwaiting": 3352,
      "Ġpractice": 3353,
      "Ġfantastic": 3354,
      "eral": 3355,
      "ained": 3356,
      "Ġcover": 3357,
      "Ġdangerous": 3358,
      "ĠAfghan": 3359,
      "ky": 3360,
      "mic": 3361,
      "Ġtap": 3362,
      "iti": 3363,
      "Ġrange": 3364,
      "Ġsurger": 3365,
      "Ġautom": 3366,
      "Ġfreedom": 3367,
      "Ġintelligence": 3368,
      "ec": 3369,
      "fer": 3370,
      "iest": 3371,
      "eless": 3372,
      "ables": 3373,
      "Ġgreatest": 3374,
      "Ġfinal": 3375,
      "Ġdirection": 3376,
      "Ġperformance": 3377,
      "ystem": 3378,
      "atives": 3379,
      "Ġsaving": 3380,
      "ĠRight": 3381,
      "Ġbeauty": 3382,
      "Ġcelebr": 3383,
      "Somet": 3384,
      "Ġweap": 3385,
      "imately": 3386,
      "Ġrise": 3387,
      "Ġprep": 3388,
      "Ġrand": 3389,
      "Ġwalked": 3390,
      "Ġenvironmental": 3391,
      "Ġzero": 3392,
      "Right": 3393,
      "orry": 3394,
      "uted": 3395,
      "Ġsecret": 3396,
      "Ġinstitutions": 3397,
      "Ġcitizens": 3398,
      "ises": 3399,
      "orrow": 3400,
      "Ġatm": 3401,
      "osing": 3402,
      "ĠCity": 3403,
      "resh": 3404,
      "Ġdecade": 3405,
      "Ġspirit": 3406,
      "atically": 3407,
      "ashing": 3408,
      "ils": 3409,
      "ĠUniversity": 3410,
      "Ġvalues": 3411,
      "Ġeffective": 3412,
      "Ġvari": 3413,
      "Another": 3414,
      "Ġfuel": 3415,
      "Ġimmediately": 3416,
      "Yeah": 3417,
      "oid": 3418,
      "rees": 3419,
      "Ġcry": 3420,
      "Ġcrow": 3421,
      "istics": 3422,
      "Ġdriving": 3423,
      "Ġmeeting": 3424,
      "yr": 3425,
      "oty": 3426,
      "ologist": 3427,
      "Ġrandom": 3428,
      "Ġlad": 3429,
      "Ġwealth": 3430,
      "Ġshark": 3431,
      "ĠSp": 3432,
      "Ġinvented": 3433,
      "Ġoptim": 3434,
      "Ġfloor": 3435,
      "Ġmatch": 3436,
      "Ġran": 3437,
      "Ġplastic": 3438,
      "Ġcoun": 3439,
      "ondon": 3440,
      "Ġteaching": 3441,
      "Ġmassive": 3442,
      "Ġvarious": 3443,
      "Ġtypes": 3444,
      "Ġahead": 3445,
      "itor": 3446,
      "Ġdecades": 3447,
      "airs": 3448,
      "Ġdemon": 3449,
      "Ġlaws": 3450,
      "attle": 3451,
      "Ġencou": 3452,
      "Imagine": 3453,
      "Ġincome": 3454,
      "ĠOr": 3455,
      "Ġservices": 3456,
      "Ġmultip": 3457,
      "vision": 3458,
      "ches": 3459,
      "Ġjud": 3460,
      "ĠLondon": 3461,
      "Ġhumanity": 3462,
      "Ġinterview": 3463,
      "Ġcareer": 3464,
      "Ġgovernments": 3465,
      "Ġconnection": 3466,
      "Ġneighborhood": 3467,
      "ball": 3468,
      "pro": 3469,
      "iles": 3470,
      "Ġgradu": 3471,
      "rastruct": 3472,
      "âĻ«": 3473,
      "antic": 3474,
      "ĠMus": 3475,
      "ĠGerman": 3476,
      "Ġdecide": 3477,
      "Ġapply": 3478,
      "Ġcondition": 3479,
      "iot": 3480,
      "Ġconcl": 3481,
      "Ġinstance": 3482,
      "Ġfollowing": 3483,
      "Ġbabies": 3484,
      "60": 3485,
      "SA": 3486,
      "eny": 3487,
      "Ġinsect": 3488,
      "Ġord": 3489,
      "Ġalthough": 3490,
      "Ġuses": 3491,
      "ĠHar": 3492,
      "Ġuseful": 3493,
      "Ġsimpl": 3494,
      "Ġinstr": 3495,
      "Ġi": 3496,
      "Ġfit": 3497,
      "ĠCent": 3498,
      "ricult": 3499,
      "Ġpopular": 3500,
      "Ġphysic": 3501,
      "Ġterrible": 3502,
      "Ġmethod": 3503,
      "Ġremarkable": 3504,
      "Se": 3505,
      "Ġnation": 3506,
      "stit": 3507,
      "key": 3508,
      "Ġchoices": 3509,
      "ĠAt": 3510,
      "ĠWestern": 3511,
      "Ġrelative": 3512,
      "Ġpossibly": 3513,
      "Ġinfrastruct": 3514,
      "Ġelectron": 3515,
      "Ġenormous": 3516,
      "ef": 3517,
      "Ġsurve": 3518,
      "Ġstandard": 3519,
      "Ġhonest": 3520,
      "aign": 3521,
      "ĠX": 3522,
      "Ġdram": 3523,
      "Ġforget": 3524,
      "ĠOkay": 3525,
      "Ġscr": 3526,
      "Ġeffects": 3527,
      "Ġdemonstr": 3528,
      "wise": 3529,
      "Ġraise": 3530,
      "Ġpolitics": 3531,
      "Ġflying": 3532,
      "Ġatmosphere": 3533,
      "gain": 3534,
      "iate": 3535,
      "yl": 3536,
      "Ġanyway": 3537,
      "Ġchallenges": 3538,
      "Ġbroad": 3539,
      "board": 3540,
      "Ġsus": 3541,
      "Ġsad": 3542,
      "Ġcust": 3543,
      "Ġhous": 3544,
      "Ġhair": 3545,
      "Ġstress": 3546,
      "Ġassoci": 3547,
      "Ġ24": 3548,
      "Ġtrade": 3549,
      "Ġoppos": 3550,
      "Ġvirus": 3551,
      "Ġfinancial": 3552,
      "Ġsocieties": 3553,
      "Ġyell": 3554,
      "Ġnut": 3555,
      "ervation": 3556,
      "anced": 3557,
      "iforn": 3558,
      "Ġinteg": 3559,
      "Ġvict": 3560,
      "Ġexpress": 3561,
      "Ġhelped": 3562,
      "Ġslide": 3563,
      "Ġdiseases": 3564,
      "Ġengineering": 3565,
      "Ġmotiv": 3566,
      "Ġdynam": 3567,
      "Ġslightly": 3568,
      "Like": 3569,
      "uct": 3570,
      "Ġtiss": 3571,
      "repre": 3572,
      "Ġmamm": 3573,
      "arm": 3574,
      "Ġaltern": 3575,
      "Ġrace": 3576,
      "Ġunderstood": 3577,
      "Ġ197": 3578,
      "Ġsupply": 3579,
      "Ġ70": 3580,
      "Ġsymbol": 3581,
      "Ġpressure": 3582,
      "Ġsummer": 3583,
      "reprene": 3584,
      "now": 3585,
      "ray": 3586,
      "Ġmut": 3587,
      "Ġworst": 3588,
      "ĠAustr": 3589,
      "itted": 3590,
      "Ġspeech": 3591,
      "Ġsurround": 3592,
      "Ġban": 3593,
      "iring": 3594,
      "ĠSch": 3595,
      "ĠMars": 3596,
      "Ġcommer": 3597,
      "Ġscan": 3598,
      "Ġcapacity": 3599,
      "Ġhyd": 3600,
      "Ġmicrob": 3601,
      "Ġpurpose": 3602,
      "win": 3603,
      "Ġbase": 3604,
      "Ġmal": 3605,
      "Ġpig": 3606,
      "Ġdrop": 3607,
      "udd": 3608,
      "iber": 3609,
      "Ġbelow": 3610,
      "Ġtelevision": 3611,
      "Ġphilos": 3612,
      "cles": 3613,
      "Ġwood": 3614,
      "Ġartist": 3615,
      "Ġshared": 3616,
      "Ġswitch": 3617,
      "Ġsurvive": 3618,
      "Ġdirectly": 3619,
      "Ġdestro": 3620,
      "Ġfemale": 3621,
      "ĠCaliforn": 3622,
      "Ġcolleagues": 3623,
      "ĠQ": 3624,
      "Ġir": 3625,
      "Ġtens": 3626,
      "Ġwhose": 3627,
      "cience": 3628,
      "ĠCong": 3629,
      "Ġmostly": 3630,
      "Ġcultural": 3631,
      "Ġswim": 3632,
      "Ġ500": 3633,
      "Ġpaid": 3634,
      "Ġtemperature": 3635,
      "ufact": 3636,
      "Ġrule": 3637,
      "Ġoffic": 3638,
      "Ġcentral": 3639,
      "Ġprograms": 3640,
      "Ġtremend": 3641,
      "ancy": 3642,
      "arian": 3643,
      "Ġstates": 3644,
      "Ġagricult": 3645,
      "ĠIndian": 3646,
      "Ġrelationships": 3647,
      "Ġreligion": 3648,
      "yle": 3649,
      "Ġforces": 3650,
      "Ġconsequ": 3651,
      "unk": 3652,
      "Ġprevent": 3653,
      "Ġinvent": 3654,
      "Ġboys": 3655,
      "ios": 3656,
      "Ġdad": 3657,
      "Ġdimens": 3658,
      "Ġet": 3659,
      "cell": 3660,
      "ĠArab": 3661,
      "Ġcauses": 3662,
      "Ġdoub": 3663,
      "Ġpublished": 3664,
      "Ġinfrastructure": 3665,
      "ĠCalifornia": 3666,
      "cope": 3667,
      "olve": 3668,
      "Ġdifferences": 3669,
      "Ġblog": 3670,
      "Ġcreativity": 3671,
      "Ġbelief": 3672,
      "Ġmeters": 3673,
      "Ġorganizations": 3674,
      "ID": 3675,
      "wood": 3676,
      "Ġaid": 3677,
      "Ġloss": 3678,
      "raq": 3679,
      "Ġnoticed": 3680,
      "Ġconc": 3681,
      "ĠBl": 3682,
      "Ġfunny": 3683,
      "Ġanswers": 3684,
      "Ġcontroll": 3685,
      "Ġreflect": 3686,
      "Ġprofound": 3687,
      "Ġtotal": 3688,
      "load": 3689,
      "Ġmobile": 3690,
      "Ġtun": 3691,
      "Ġtask": 3692,
      "ooper": 3693,
      "Ġmale": 3694,
      "Ġoxygen": 3695,
      "gy": 3696,
      "ked": 3697,
      "ened": 3698,
      "stead": 3699,
      "Ġheat": 3700,
      "cks": 3701,
      "cules": 3702,
      "Ġradio": 3703,
      "Ġcloser": 3704,
      "ris": 3705,
      "raid": 3706,
      "Ġliber": 3707,
      "izes": 3708,
      "Ġexpand": 3709,
      "Ġspeaking": 3710,
      "Ġdiagn": 3711,
      "Ġlegal": 3712,
      "Ġcampaign": 3713,
      "ĠAfghanistan": 3714,
      "Are": 3715,
      "inate": 3716,
      "Ġmid": 3717,
      "ement": 3718,
      "Ġtwice": 3719,
      "rupt": 3720,
      "rench": 3721,
      "Ġ300": 3722,
      "Ġentreprene": 3723,
      "Ġbiological": 3724,
      "Ġstopped": 3725,
      "Ġoriginal": 3726,
      "Ġmountain": 3727,
      "Ġtrouble": 3728,
      "Ġsurgery": 3729,
      "af": 3730,
      "off": 3731,
      "anda": 3732,
      "ander": 3733,
      "ĠMar": 3734,
      "Ġplayed": 3735,
      "Ġafraid": 3736,
      "ĠMusl": 3737,
      "esis": 3738,
      "aling": 3739,
      "Ġspaces": 3740,
      "ĠSte": 3741,
      "Ġworkers": 3742,
      "Ġmanufact": 3743,
      "Ġevolved": 3744,
      "ĠNational": 3745,
      "ĠOne": 3746,
      "Ġproduced": 3747,
      "Ġmarkets": 3748,
      "Ġnetworks": 3749,
      "Ġstreets": 3750,
      "Ġcommunicate": 3751,
      "ira": 3752,
      "pes": 3753,
      "uing": 3754,
      "Ġhole": 3755,
      "ĠIraq": 3756,
      "Ġang": 3757,
      "Ġcompon": 3758,
      "ĠMy": 3759,
      "Ġgotten": 3760,
      "Ġsustainable": 3761,
      "vest": 3762,
      "water": 3763,
      "Ġbought": 3764,
      "icles": 3765,
      "Ġshock": 3766,
      "Ġactive": 3767,
      "Ġpoet": 3768,
      "Ġdispl": 3769,
      "phone": 3770,
      "Ġapplic": 3771,
      "Ġhighly": 3772,
      "Ġjournal": 3773,
      "Ġoh": 3774,
      "Ġhus": 3775,
      "arter": 3776,
      "rael": 3777,
      "Ġfeels": 3778,
      "Ġmissing": 3779,
      "Ġmix": 3780,
      "Ġseemed": 3781,
      "Ġtax": 3782,
      "Ġsmell": 3783,
      "Ġeasily": 3784,
      "Ġexperiments": 3785,
      "Ġresponsibility": 3786,
      "Ġcustom": 3787,
      "hy": 3788,
      "Ġut": 3789,
      "Ġdance": 3790,
      "Ġdying": 3791,
      "Ġfort": 3792,
      "amb": 3793,
      "adem": 3794,
      "atell": 3795,
      "Ġvast": 3796,
      "ception": 3797,
      "ashion": 3798,
      "Ġemotional": 3799,
      "Ġmolecules": 3800,
      "ĠIslam": 3801,
      "orith": 3802,
      "Ġlack": 3803,
      "empt": 3804,
      "order": 3805,
      "Ġcorner": 3806,
      "Ġhistor": 3807,
      "Ġclassroom": 3808,
      "exic": 3809,
      "Ġsurprising": 3810,
      "Ġshoot": 3811,
      "Sh": 3812,
      "band": 3813,
      "zil": 3814,
      "Ġfat": 3815,
      "ste": 3816,
      "Ġrough": 3817,
      "ibr": 3818,
      "Ġdifferently": 3819,
      "ĠRuss": 3820,
      "aced": 3821,
      "Ġindepend": 3822,
      "Ġbasis": 3823,
      "ica": 3824,
      "Ġeating": 3825,
      "ulner": 3826,
      "Ġknowing": 3827,
      "ĠAd": 3828,
      "Ġcoff": 3829,
      "ĠFace": 3830,
      "Ġcreates": 3831,
      "Ġhelping": 3832,
      "Ġplanets": 3833,
      "Ġdegrees": 3834,
      "Ġexperiences": 3835,
      "Ġbirds": 3836,
      "Ġalgorith": 3837,
      "ĠWhy": 3838,
      "edia": 3839,
      "Ġhall": 3840,
      "istry": 3841,
      "Ġdesigners": 3842,
      "Ġdeliver": 3843,
      "Ġreduce": 3844,
      "Ġefficient": 3845,
      "Ġsignificant": 3846,
      "Ġwire": 3847,
      "Ġdiversity": 3848,
      "ĠIran": 3849,
      "Ġgold": 3850,
      "Ġrapid": 3851,
      "avid": 3852,
      "Ġattract": 3853,
      "Ġmembers": 3854,
      "Ġwindow": 3855,
      "mon": 3856,
      "rical": 3857,
      "Ġsick": 3858,
      "Ġcru": 3859,
      "itter": 3860,
      "Ġnone": 3861,
      "ctually": 3862,
      "ĠShe": 3863,
      "ĠOh": 3864,
      "Ġdaughter": 3865,
      "reg": 3866,
      "Ġsatell": 3867,
      "Ġweird": 3868,
      "Ġhabit": 3869,
      "Ġindustrial": 3870,
      "Ġcommunication": 3871,
      "cript": 3872,
      "ening": 3873,
      "ears": 3874,
      "Ġbackground": 3875,
      "Instead": 3876,
      "Ġrare": 3877,
      "Ġbringing": 3878,
      "Ġcomplexity": 3879,
      "Ġbroken": 3880,
      "Ġnearly": 3881,
      "Ġdinos": 3882,
      "ĠiP": 3883,
      "Ġ$": 3884,
      "Ġver": 3885,
      "Ġur": 3886,
      "Ġseas": 3887,
      "term": 3888,
      "ĠCom": 3889,
      "Ġflight": 3890,
      "Ġgenome": 3891,
      "Ġscientist": 3892,
      "Ġspending": 3893,
      "ĠBrazil": 3894,
      "From": 3895,
      "mp": 3896,
      "Ġhom": 3897,
      "Ġgent": 3898,
      "ĠSan": 3899,
      "ĠCl": 3900,
      "ĠMexic": 3901,
      "Ġagree": 3902,
      "Ġclimb": 3903,
      "Ġvisit": 3904,
      "Ġairpl": 3905,
      "Ġetc": 3906,
      "Two": 3907,
      "ratic": 3908,
      "icking": 3909,
      "osystem": 3910,
      "Ġcontact": 3911,
      "Ġstudying": 3912,
      "Ġlights": 3913,
      "Ġdemand": 3914,
      "Ġconference": 3915,
      "Ġphoto": 3916,
      "ĠBecause": 3917,
      "Ġconsciousness": 3918,
      "Ġtarget": 3919,
      "Ġcommercial": 3920,
      "Your": 3921,
      "gth": 3922,
      "isco": 3923,
      "icon": 3924,
      "Ġreb": 3925,
      "Ġreco": 3926,
      "Ġstren": 3927,
      "Ġtrip": 3928,
      "anging": 3929,
      "Ġresist": 3930,
      "Ġaddition": 3931,
      "Ġhearing": 3932,
      "Ġdevices": 3933,
      "Ġanaly": 3934,
      "ĠAustral": 3935,
      "30": 3936,
      "Ġske": 3937,
      "Ġfold": 3938,
      "Ġshift": 3939,
      "Ġenter": 3940,
      "Ġbreast": 3941,
      "Ġopportunities": 3942,
      "Ġvolunt": 3943,
      "Ġcrowd": 3944,
      "Ġtremendous": 3945,
      "Ġwide": 3946,
      "reci": 3947,
      "Ġbees": 3948,
      "rogen": 3949,
      "Ġvulner": 3950,
      "ording": 3951,
      "Ġboat": 3952,
      "Ġmetap": 3953,
      "Ġfocused": 3954,
      "Ġjoin": 3955,
      "Many": 3956,
      "Ġlandscape": 3957,
      "IDS": 3958,
      "ĠFacebook": 3959,
      "Ġinj": 3960,
      "Ġhack": 3961,
      "Ġchim": 3962,
      "Ġtrib": 3963,
      "ĠLet": 3964,
      "Ġecosystem": 3965,
      "Ġstrength": 3966,
      "Ġtum": 3967,
      "Ġfro": 3968,
      "Ġrout": 3969,
      "ĠDr": 3970,
      "Ġflag": 3971,
      "Ġfairly": 3972,
      "aul": 3973,
      "ees": 3974,
      "edd": 3975,
      "Ġstem": 3976,
      "Ġbrill": 3977,
      "Ġimagination": 3978,
      "Ġforever": 3979,
      "Ġfully": 3980,
      "Ġmaster": 3981,
      "Ġpassed": 3982,
      "Ġsexual": 3983,
      "Ġidentity": 3984,
      "rie": 3985,
      "Ġtherap": 3986,
      "Ġcooper": 3987,
      "Ġbread": 3988,
      "Think": 3989,
      "aining": 3990,
      "bert": 3991,
      "Ġdesert": 3992,
      "ĠIsrael": 3993,
      "Ġmission": 3994,
      "iam": 3995,
      "Ġmuseum": 3996,
      "Ġbeat": 3997,
      "Ġancient": 3998,
      "Ġshop": 3999,
      "Ġcorrect": 4000,
      "Ġparad": 4001,
      "Ġcoffee": 4002,
      "hand": 4003,
      "house": 4004,
      "na": 4005,
      "Ġcred": 4006,
      "Ġaspect": 4007,
      "Ġcreatures": 4008,
      "Ġconsid": 4009,
      "Ġpleas": 4010,
      "Ġinspired": 4011,
      "Ġbomb": 4012,
      "Ġphenomenon": 4013,
      "Ġlucky": 4014,
      "Ġopposite": 4015,
      "Ġyellow": 4016,
      "Un": 4017,
      "based": 4018,
      "do": 4019,
      "gra": 4020,
      "pping": 4021,
      "Ġalt": 4022,
      "ĠMiddle": 4023,
      "Ġparty": 4024,
      "orders": 4025,
      "Ġartists": 4026,
      "Ġpossibility": 4027,
      "Ġcheap": 4028,
      "Ġargument": 4029,
      "Ġreligious": 4030,
      "Ġfarmers": 4031,
      "Ġdespite": 4032,
      "ties": 4033,
      "atr": 4034,
      "Ġcore": 4035,
      "Ġmort": 4036,
      "Ġamb": 4037,
      "Ġturning": 4038,
      "Ġmagaz": 4039,
      "Ġfailure": 4040,
      "Ġcogn": 4041,
      "Ġhost": 4042,
      "ifying": 4043,
      "Ġaccom": 4044,
      "Ġaccident": 4045,
      "Ġeasier": 4046,
      "idden": 4047,
      "ography": 4048,
      "Ġadvant": 4049,
      "ipped": 4050,
      "Ġdescribe": 4051,
      "Ġbrand": 4052,
      "Ġgentle": 4053,
      "cest": 4054,
      "mark": 4055,
      "val": 4056,
      "atures": 4057,
      "Ġmouth": 4058,
      "orge": 4059,
      "Ġgiant": 4060,
      "Ġrepe": 4061,
      "Ġhell": 4062,
      "Ġsharing": 4063,
      "Ġnotion": 4064,
      "Ġteen": 4065,
      "Ġevents": 4066,
      "itely": 4067,
      "ĠRe": 4068,
      "Ġparticles": 4069,
      "Ġfigured": 4070,
      "Ġdreams": 4071,
      "ront": 4072,
      "Ġgun": 4073,
      "using": 4074,
      "irt": 4075,
      "Ġship": 4076,
      "Ġnote": 4077,
      "Ġpartners": 4078,
      "Ġraised": 4079,
      "Ġimportantly": 4080,
      "ification": 4081,
      "Ġmoments": 4082,
      "Ġstructures": 4083,
      "lies": 4084,
      "zen": 4085,
      "edic": 4086,
      "Ġnor": 4087,
      "ulpt": 4088,
      "ĠDo": 4089,
      "ĠRo": 4090,
      "Ġsculpt": 4091,
      "ĠWeb": 4092,
      "Ġforeign": 4093,
      "Ġentirely": 4094,
      "Ġbenefits": 4095,
      "cop": 4096,
      "rim": 4097,
      "Ġing": 4098,
      "Ġancest": 4099,
      "Ġjoy": 4100,
      "Ġexer": 4101,
      "roud": 4102,
      "ager": 4103,
      "Ġcoast": 4104,
      "ĠTw": 4105,
      "Ġgene": 4106,
      "Ġharm": 4107,
      "cra": 4108,
      "ford": 4109,
      "Ġfol": 4110,
      "vere": 4111,
      "Ġforg": 4112,
      "Ġheld": 4113,
      "ulations": 4114,
      "Ġplat": 4115,
      "Ġbright": 4116,
      "ĠYes": 4117,
      "Ġregular": 4118,
      "print": 4119,
      "ĠAsia": 4120,
      "20": 4121,
      "rated": 4122,
      "ĠWh": 4123,
      "reet": 4124,
      "Ġsorry": 4125,
      "Ġbatter": 4126,
      "icians": 4127,
      "ett": 4128,
      "ada": 4129,
      "ĠMich": 4130,
      "Ġcla": 4131,
      "Ġpoem": 4132,
      "Ġcalls": 4133,
      "Ġbrings": 4134,
      "Ġelements": 4135,
      "Ġsuffering": 4136,
      "Ġnecessarily": 4137,
      "Ġnegative": 4138,
      "Ġpuzz": 4139,
      "Ġvacc": 4140,
      "Ġble": 4141,
      "Ġbillions": 4142,
      "Ġtom": 4143,
      "Ġsport": 4144,
      "ĠPar": 4145,
      "Ġtraffic": 4146,
      "connect": 4147,
      "Ġcharge": 4148,
      "Ġrequire": 4149,
      "vity": 4150,
      "Ġwis": 4151,
      "Ġfashion": 4152,
      "ley": 4153,
      "Ġnorth": 4154,
      "enty": 4155,
      "roll": 4156,
      "Ġstream": 4157,
      "Ġconcent": 4158,
      "Ġquote": 4159,
      "ĠNor": 4160,
      "Ġattempt": 4161,
      "Ġaccur": 4162,
      "Ġrestaur": 4163,
      "Ġresponsible": 4164,
      "Ġkilomet": 4165,
      "dimens": 4166,
      "equ": 4167,
      "my": 4168,
      "rate": 4169,
      "Ġtough": 4170,
      "inc": 4171,
      "Ġmill": 4172,
      "Ġproud": 4173,
      "ĠMc": 4174,
      "Ġbrother": 4175,
      "Ġbridge": 4176,
      "Ġappreci": 4177,
      "Ġremote": 4178,
      "Ġdistance": 4179,
      "Ġphotos": 4180,
      "Ġleadership": 4181,
      "Ġcompetition": 4182,
      "Again": 4183,
      "Ġbud": 4184,
      "Ġbound": 4185,
      "Ġpounds": 4186,
      "Ġseed": 4187,
      "Ġdisp": 4188,
      "Ġprevious": 4189,
      "Ġsmo": 4190,
      "Ġinvis": 4191,
      "Ġhelps": 4192,
      "Ġcorpor": 4193,
      "Ġopened": 4194,
      "ĠEuropean": 4195,
      "Ġcounter": 4196,
      "Ġtissue": 4197,
      "ugg": 4198,
      "ĠĠ": 4199,
      "Ġiron": 4200,
      "aria": 4201,
      "verse": 4202,
      "celer": 4203,
      "ifically": 4204,
      "ulated": 4205,
      "Ġchick": 4206,
      "ruption": 4207,
      "ĠFor": 4208,
      "ĠFrench": 4209,
      "Ġstudied": 4210,
      "Ġindic": 4211,
      "Ġedge": 4212,
      "Ġ400": 4213,
      "Ġleading": 4214,
      "Ġnecessary": 4215,
      "Ġdefinition": 4216,
      "Ġepide": 4217,
      "Ġvirtual": 4218,
      "Ġweapons": 4219,
      "gypt": 4220,
      "stein": 4221,
      "eared": 4222,
      "uild": 4223,
      "inally": 4224,
      "itable": 4225,
      "Ġinform": 4226,
      "Ġegg": 4227,
      "idents": 4228,
      "Ġsector": 4229,
      "ibilities": 4230,
      "ĠNiger": 4231,
      "ĠFran": 4232,
      "ysis": 4233,
      "Ġgrass": 4234,
      "Ġoceans": 4235,
      "Ġintellect": 4236,
      "Ġemotion": 4237,
      "Ġdocument": 4238,
      "Ġphilosoph": 4239,
      "Ġcand": 4240,
      "Ġreve": 4241,
      "Ġadapt": 4242,
      "Ġshouldn": 4243,
      "Ġbelieved": 4244,
      "Ġmatters": 4245,
      "Ġholding": 4246,
      "Ġultimately": 4247,
      "Ġbalance": 4248,
      "Ġhusband": 4249,
      "Ġbrilliant": 4250,
      "Actually": 4251,
      "Com": 4252,
      "kn": 4253,
      "lin": 4254,
      "Ġmaint": 4255,
      "Ġhero": 4256,
      "Ġrelated": 4257,
      "Ġstuck": 4258,
      "However": 4259,
      "Ġdollar": 4260,
      "Ġmotor": 4261,
      "Ġfailed": 4262,
      "Ġunfortunately": 4263,
      "Ġfaith": 4264,
      "Ġadults": 4265,
      "Ġdestroy": 4266,
      "ses": 4267,
      "Ġtast": 4268,
      "artment": 4269,
      "Ġtruck": 4270,
      "Ġcompl": 4271,
      "Ġoffer": 4272,
      "Ġchildhood": 4273,
      "Ġleads": 4274,
      "Ġsignal": 4275,
      "Ġcolors": 4276,
      "Ġsucceed": 4277,
      "Ġconvin": 4278,
      "ĠChris": 4279,
      "Ġdouble": 4280,
      "His": 4281,
      "aff": 4282,
      "iors": 4283,
      "uros": 4284,
      "vant": 4285,
      "ctions": 4286,
      "urch": 4287,
      "Ġund": 4288,
      "Ġshel": 4289,
      "Ġriver": 4290,
      "ĠDar": 4291,
      "ĠKeny": 4292,
      "Ġinvestment": 4293,
      "Ġgrandm": 4294,
      "Ġinstitution": 4295,
      "dimensional": 4296,
      "iage": 4297,
      "tle": 4298,
      "word": 4299,
      "Ġmouse": 4300,
      "Ġnarr": 4301,
      "Ġclick": 4302,
      "iable": 4303,
      "ĠDavid": 4304,
      "Ġheads": 4305,
      "Ġconcerned": 4306,
      "Ġinsects": 4307,
      "Ġplatform": 4308,
      "mar": 4309,
      "inist": 4310,
      "Ġhate": 4311,
      "Ġpet": 4312,
      "Ġfab": 4313,
      "Ġfoss": 4314,
      "care": 4315,
      "Ġnoise": 4316,
      "Ġuniversity": 4317,
      "ographic": 4318,
      "Ġdiscovery": 4319,
      "Ġleaving": 4320,
      "Ġwheel": 4321,
      "hold": 4322,
      "ij": 4323,
      "mit": 4324,
      "Ġfle": 4325,
      "Ġlunch": 4326,
      "oop": 4327,
      "ĠAb": 4328,
      "oses": 4329,
      "ĠSun": 4330,
      "agers": 4331,
      "Ġunlike": 4332,
      "ĠEgypt": 4333,
      "Hey": 4334,
      "Ġelement": 4335,
      "Ġnewsp": 4336,
      "Ġdeeply": 4337,
      "Ġconstruct": 4338,
      "Ġslowly": 4339,
      "Ġsequence": 4340,
      "Ġinfluence": 4341,
      "Ġexhib": 4342,
      "right": 4343,
      "ĠWhen": 4344,
      "Ġmoves": 4345,
      "terday": 4346,
      "Ġexch": 4347,
      "Ġnovel": 4348,
      "Ġunc": 4349,
      "Ġprior": 4350,
      "Ġcrash": 4351,
      "Ġlesson": 4352,
      "Ġcaught": 4353,
      "Ġfrequ": 4354,
      "Ġdegree": 4355,
      "Re": 4356,
      "Ġweak": 4357,
      "illed": 4358,
      "Ġcompared": 4359,
      "Ġtransp": 4360,
      "Ġprototy": 4361,
      "Ġconstantly": 4362,
      "Ġtypical": 4363,
      "ipping": 4364,
      "Ġprofessional": 4365,
      "lands": 4366,
      "ox": 4367,
      "Ġbag": 4368,
      "Ġmig": 4369,
      "alled": 4370,
      "ĠMr": 4371,
      "ĠBang": 4372,
      "ĠGreat": 4373,
      "Ġletter": 4374,
      "ĠChar": 4375,
      "Ġcreation": 4376,
      "Ġpresident": 4377,
      "Ġtrained": 4378,
      "Ġargue": 4379,
      "Ġembra": 4380,
      "Ġfighting": 4381,
      "Ġsynth": 4382,
      "Ġprotein": 4383,
      "Ġsister": 4384,
      "lection": 4385,
      "Ġnames": 4386,
      "oted": 4387,
      "Ġants": 4388,
      "Ġrot": 4389,
      "pper": 4390,
      "Ġclosed": 4391,
      "Ġfactory": 4392,
      "Ġinsight": 4393,
      "Ġgrad": 4394,
      "Ġfinished": 4395,
      "Ġbegins": 4396,
      "Ġhyp": 4397,
      "Ġmajority": 4398,
      "Ġwalls": 4399,
      "Ġfascinating": 4400,
      "Ġfrag": 4401,
      "More": 4402,
      "ius": 4403,
      "son": 4404,
      "Ġbone": 4405,
      "Ġfresh": 4406,
      "Ġden": 4407,
      "Ġgard": 4408,
      "throp": 4409,
      "Ġspot": 4410,
      "ortex": 4411,
      "udience": 4412,
      "Ġacceler": 4413,
      "Ġphones": 4414,
      "athy": 4415,
      "Ġopin": 4416,
      "Ġcapable": 4417,
      "Ġpaint": 4418,
      "Ġcollective": 4419,
      "Ġinteraction": 4420,
      "Ġemotions": 4421,
      "Ġsurprise": 4422,
      "Ġdescribed": 4423,
      "Ġstrategy": 4424,
      "DP": 4425,
      "Over": 4426,
      "mission": 4427,
      "oom": 4428,
      "Ġtit": 4429,
      "Ġtour": 4430,
      "Ġtor": 4431,
      "Ġfaces": 4432,
      "esth": 4433,
      "Ġreward": 4434,
      "ami": 4435,
      "essed": 4436,
      "Ġ150": 4437,
      "Ġmanaged": 4438,
      "Ġotherwise": 4439,
      "Ġtalks": 4440,
      "ĠFl": 4441,
      "Ġattach": 4442,
      "Ġequal": 4443,
      "Ġequival": 4444,
      "Ġdepression": 4445,
      "ength": 4446,
      "Ġhorr": 4447,
      "Ġmathematics": 4448,
      "Ġquantum": 4449,
      "Ġmetaphor": 4450,
      "IT": 4451,
      "oe": 4452,
      "Ġseat": 4453,
      "Ġmos": 4454,
      "Ġroof": 4455,
      "Ġadop": 4456,
      "Ġcoral": 4457,
      "Ġpaying": 4458,
      "Ġoperating": 4459,
      "Ġseparate": 4460,
      "Ġadvantage": 4461,
      "Ġton": 4462,
      "Ġcos": 4463,
      "ancing": 4464,
      "esign": 4465,
      "urally": 4466,
      "Ġorganisms": 4467,
      "Ġengineers": 4468,
      "Ġperfectly": 4469,
      "ĠBritish": 4470,
      "Sometimes": 4471,
      "Ġcognitive": 4472,
      "Once": 4473,
      "Take": 4474,
      "Ġera": 4475,
      "Ġpun": 4476,
      "entally": 4477,
      "uries": 4478,
      "Ġmoon": 4479,
      "Ġsoil": 4480,
      "Ġjustice": 4481,
      "apers": 4482,
      "Ġdisaster": 4483,
      "Ġfollowed": 4484,
      "Ġavoid": 4485,
      "Ġcurrently": 4486,
      "Ġbenefit": 4487,
      "Ġprinciples": 4488,
      "Second": 4489,
      "oint": 4490,
      "Ġodd": 4491,
      "Ġband": 4492,
      "Ġpurs": 4493,
      "anes": 4494,
      "Ġwhom": 4495,
      "Ġking": 4496,
      "Ġhasn": 4497,
      "Ġartific": 4498,
      "Ġconsumption": 4499,
      "Ġcivilization": 4500,
      "Ġbreath": 4501,
      "Ġgalaxies": 4502,
      "Ġmentioned": 4503,
      "Ġvolunte": 4504,
      "Ġinvisible": 4505,
      "Would": 4506,
      "vention": 4507,
      "Ġcateg": 4508,
      "Ġhomes": 4509,
      "asion": 4510,
      "ulous": 4511,
      "Ġchann": 4512,
      "Ġorg": 4513,
      "ĠCO": 4514,
      "Ġempt": 4515,
      "Ġeleph": 4516,
      "Ġsurprised": 4517,
      "Ġfeedback": 4518,
      "ae": 4519,
      "oration": 4520,
      "icity": 4521,
      "Ġstim": 4522,
      "Ġworried": 4523,
      "Ġmeat": 4524,
      "cked": 4525,
      "Ġbrief": 4526,
      "Ġharder": 4527,
      "Ġgrown": 4528,
      "Ġequip": 4529,
      "Ġtreated": 4530,
      "Ġlimited": 4531,
      "Ġreplace": 4532,
      "Ġfinger": 4533,
      "known": 4534,
      "Ġmir": 4535,
      "Ġincent": 4536,
      "Ġwearing": 4537,
      "alley": 4538,
      "irm": 4539,
      "ĠCon": 4540,
      "ĠPl": 4541,
      "Ġleader": 4542,
      "Ġbusinesses": 4543,
      "Ġvehicle": 4544,
      "ashington": 4545,
      "Ġequivalent": 4546,
      "Did": 4547,
      "gar": 4548,
      "Ġdue": 4549,
      "Ġlapt": 4550,
      "Ġgar": 4551,
      "ads": 4552,
      "Ġeveryday": 4553,
      "Ġfell": 4554,
      "Ġcontract": 4555,
      "Ġdesire": 4556,
      "Ġprecise": 4557,
      "Ġbelong": 4558,
      "Ġlanguages": 4559,
      "Ġinvestig": 4560,
      "Ġreceived": 4561,
      "Ġgalaxy": 4562,
      "ĠFranc": 4563,
      "ok": 4564,
      "Ġsouth": 4565,
      "isher": 4566,
      "onom": 4567,
      "ara": 4568,
      "Ġwear": 4569,
      "Ġnerv": 4570,
      "uman": 4571,
      "cket": 4572,
      "Ġcompare": 4573,
      "apse": 4574,
      "ildren": 4575,
      "Ġarms": 4576,
      "Ġinvited": 4577,
      "ĠEngland": 4578,
      "Ġcycle": 4579,
      "Ġwisdom": 4580,
      "rict": 4581,
      "wide": 4582,
      "Ġtox": 4583,
      "Ġextend": 4584,
      "Ġchair": 4585,
      "ume": 4586,
      "ichard": 4587,
      "Ġfellow": 4588,
      "ĠEd": 4589,
      "ĠGu": 4590,
      "Ġbull": 4591,
      "ĠWashington": 4592,
      "Ġ35": 4593,
      "Ġplanning": 4594,
      "Ġfourth": 4595,
      "Ġwatched": 4596,
      "Ġcircle": 4597,
      "Ġmarried": 4598,
      "Ġmolecule": 4599,
      "Ġalternative": 4600,
      "ĠMexico": 4601,
      "ĠAustralia": 4602,
      "Ġmagazine": 4603,
      "car": 4604,
      "cil": 4605,
      "pet": 4606,
      "Ġax": 4607,
      "Ġwave": 4608,
      "Ġpow": 4609,
      "Ġweather": 4610,
      "Ġselect": 4611,
      "umber": 4612,
      "Ġagre": 4613,
      "Ġunless": 4614,
      "Ġimplic": 4615,
      "ĠPark": 4616,
      "elling": 4617,
      "aked": 4618,
      "ublic": 4619,
      "issions": 4620,
      "Ġlaunched": 4621,
      "Go": 4622,
      "Ġtal": 4623,
      "Ġmothers": 4624,
      "roph": 4625,
      "Ġexists": 4626,
      "Ġintu": 4627,
      "ensity": 4628,
      "Ġsurge": 4629,
      "Ġdesigner": 4630,
      "Ġhighest": 4631,
      "Ġsymmet": 4632,
      "Ġsurvival": 4633,
      "Ġagriculture": 4634,
      "craft": 4635,
      "Ġequipment": 4636,
      "au": 4637,
      "Ġbattle": 4638,
      "Ġpages": 4639,
      "Ġfed": 4640,
      "iration": 4641,
      "Ġusers": 4642,
      "Ġquiet": 4643,
      "ĠGo": 4644,
      "Ġacadem": 4645,
      "Ġcommit": 4646,
      "Ġexpert": 4647,
      "Ġstupid": 4648,
      "Ġanti": 4649,
      "Ġseriously": 4650,
      "Ġsoldiers": 4651,
      "Ġdebate": 4652,
      "stitute": 4653,
      "gn": 4654,
      "Ġhun": 4655,
      "Ġtoward": 4656,
      "Ġdry": 4657,
      "oman": 4658,
      "Ġdol": 4659,
      "Ġthinks": 4660,
      "Ġcoal": 4661,
      "ĠDan": 4662,
      "Ġputs": 4663,
      "Ġorganic": 4664,
      "Ġcurious": 4665,
      "Ġhopefully": 4666,
      "Ġnormally": 4667,
      "Ġversus": 4668,
      "Ġdrawing": 4669,
      "Ġdinner": 4670,
      "Each": 4671,
      "lied": 4672,
      "add": 4673,
      "Ġpros": 4674,
      "ĠEx": 4675,
      "Ġeconomics": 4676,
      "Ġshapes": 4677,
      "Ġidentify": 4678,
      "Ġmultiple": 4679,
      "ĠTwitter": 4680,
      "Ġnervous": 4681,
      "set": 4682,
      "Ġpoo": 4683,
      "Ġreef": 4684,
      "ago": 4685,
      "Ġpolic": 4686,
      "Ġtesting": 4687,
      "Ġveget": 4688,
      "Ġsteps": 4689,
      "Ġdistribution": 4690,
      "Ġincreasingly": 4691,
      "Ġassociated": 4692,
      "Ġnutr": 4693,
      "Ġkilometers": 4694,
      "bel": 4695,
      "hab": 4696,
      "Ġhidden": 4697,
      "Ġinit": 4698,
      "ushing": 4699,
      "anted": 4700,
      "Ġround": 4701,
      "Ġves": 4702,
      "ĠCol": 4703,
      "ĠMin": 4704,
      "ĠGl": 4705,
      "ĠHere": 4706,
      "place": 4707,
      "Ġplayers": 4708,
      "Ġplane": 4709,
      "Ġarticle": 4710,
      "Ġprocesses": 4711,
      "Ġwarm": 4712,
      "Ġsignals": 4713,
      "Ġexistence": 4714,
      "Ġsentence": 4715,
      "Ġyesterday": 4716,
      "Ġproperty": 4717,
      "Ġstatistics": 4718,
      "Ġfolks": 4719,
      "ha": 4720,
      "Ġcro": 4721,
      "encies": 4722,
      "Ġreform": 4723,
      "Ġstation": 4724,
      "Ġneuro": 4725,
      "Ġneuros": 4726,
      "Ġrural": 4727,
      "Ġmyth": 4728,
      "estic": 4729,
      "Ġsaved": 4730,
      "Ġagg": 4731,
      "Ġresource": 4732,
      "Ġtechnical": 4733,
      "forest": 4734,
      "Ġtransformation": 4735,
      "Ġinterp": 4736,
      "Ġaccording": 4737,
      "Ġmotion": 4738,
      "Ġastron": 4739,
      "Ġleaves": 4740,
      "Ġordinary": 4741,
      "Ġdolph": 4742,
      "Ex": 4743,
      "RI": 4744,
      "rum": 4745,
      "Ġtick": 4746,
      "Ġgather": 4747,
      "otic": 4748,
      "Ġchain": 4749,
      "ĠJust": 4750,
      "ocol": 4751,
      "Ġdriver": 4752,
      "Ġgenerations": 4753,
      "Ġinfin": 4754,
      "Ġwarming": 4755,
      "Ġsites": 4756,
      "Ġillness": 4757,
      "Ġantib": 4758,
      "Ġcircum": 4759,
      "Ġfilled": 4760,
      "Ġcomfortable": 4761,
      "Ġstruggle": 4762,
      "ĠGermany": 4763,
      "Ġairplane": 4764,
      "oot": 4765,
      "ri": 4766,
      "Ġtall": 4767,
      "instein": 4768,
      "Ġdate": 4769,
      "Ġinner": 4770,
      "aled": 4771,
      "Ġisland": 4772,
      "Ġstood": 4773,
      "cale": 4774,
      "Ġtail": 4775,
      "ĠEn": 4776,
      "ĠEvery": 4777,
      "ĠGra": 4778,
      "Ġflat": 4779,
      "Ġcaused": 4780,
      "Ġdiet": 4781,
      "Ġdaily": 4782,
      "Ġsafety": 4783,
      "Ġlifet": 4784,
      "Ġawful": 4785,
      "Ġdimensions": 4786,
      "bl": 4787,
      "vard": 4788,
      "Ġtons": 4789,
      "ino": 4790,
      "Ġlosing": 4791,
      "Ġrein": 4792,
      "Ġshut": 4793,
      "olves": 4794,
      "Ġfrustr": 4795,
      "Ġspl": 4796,
      "ĠSc": 4797,
      "ĠPal": 4798,
      "ĠNA": 4799,
      "Ġimportance": 4800,
      "Ġdesigning": 4801,
      "Ġsubst": 4802,
      "Ġsetting": 4803,
      "Ġresearchers": 4804,
      "Ġconduct": 4805,
      "Ġdealing": 4806,
      "Ġgender": 4807,
      "Ġexperienced": 4808,
      "Ġprinciple": 4809,
      "Ġintellectual": 4810,
      "Ġvessel": 4811,
      "aurs": 4812,
      "cast": 4813,
      "Ġtheater": 4814,
      "erves": 4815,
      "Ġhide": 4816,
      "Ġtoile": 4817,
      "Ġdial": 4818,
      "lease": 4819,
      "Ġnan": 4820,
      "Ġabst": 4821,
      "ession": 4822,
      "Ġspoke": 4823,
      "Ġhadn": 4824,
      "Ġcovered": 4825,
      "ressive": 4826,
      "Ġscen": 4827,
      "Ġcrime": 4828,
      "Ġexplan": 4829,
      "Ġelectrical": 4830,
      "Ġcolon": 4831,
      "Ġshoes": 4832,
      "Ġheavy": 4833,
      "Ġsoul": 4834,
      "Ġconsequences": 4835,
      "ait": 4836,
      "lom": 4837,
      "Ġcow": 4838,
      "Ġgap": 4839,
      "semb": 4840,
      "Ġlibr": 4841,
      "ĠBig": 4842,
      "Ġscene": 4843,
      "Ġfinish": 4844,
      "Ġvalu": 4845,
      "Ġwondering": 4846,
      "Ġfields": 4847,
      "engu": 4848,
      "Ġmovies": 4849,
      "Ġcopy": 4850,
      "Ġarrived": 4851,
      "ĠJapanese": 4852,
      "Ġclinical": 4853,
      "Ġconvinced": 4854,
      "Ġartificial": 4855,
      "Ġsoph": 4856,
      "Ġtow": 4857,
      "ald": 4858,
      "urd": 4859,
      "Ġforced": 4860,
      "Ġliked": 4861,
      "Ġgod": 4862,
      "Ġrow": 4863,
      "ĠAIDS": 4864,
      "Ġenem": 4865,
      "ĠMay": 4866,
      "Ġpartner": 4867,
      "aker": 4868,
      "akistan": 4869,
      "Ġfacts": 4870,
      "Ġbits": 4871,
      "Ġsigns": 4872,
      "Ġkilling": 4873,
      "Ġlimit": 4874,
      "Ġlayer": 4875,
      "force": 4876,
      "Ġdamage": 4877,
      "Ġuniversal": 4878,
      "Ġpoetry": 4879,
      "ĠKenya": 4880,
      "Per": 4881,
      "ns": 4882,
      "ux": 4883,
      "rete": 4884,
      "Ġdots": 4885,
      "cipl": 4886,
      "ĠMIT": 4887,
      "Ġcloth": 4888,
      "Ġcalling": 4889,
      "ĠTimes": 4890,
      "Ġconnections": 4891,
      "Ġcontinu": 4892,
      "Ġpicked": 4893,
      "Ġessential": 4894,
      "Ġprofessor": 4895,
      "Ġintelligent": 4896,
      "Ġnegot": 4897,
      "Ġmicrobes": 4898,
      "Ġconsidered": 4899,
      "Ind": 4900,
      "bble": 4901,
      "uff": 4902,
      "zing": 4903,
      "eras": 4904,
      "Ġholes": 4905,
      "lement": 4906,
      "Ġbear": 4907,
      "Ġrecon": 4908,
      "Ġheight": 4909,
      "Ġpeak": 4910,
      "odes": 4911,
      "ĠPaul": 4912,
      "Ġadvert": 4913,
      "neath": 4914,
      "ĠKore": 4915,
      "Ġmuscle": 4916,
      "Ġopening": 4917,
      "Ġrefuge": 4918,
      "Ġcontinent": 4919,
      "Ġdeeper": 4920,
      "Ġappropr": 4921,
      "Ġengineer": 4922,
      "Ġanalysis": 4923,
      "Ġreplic": 4924,
      "ĠBritain": 4925,
      "Ġsatellite": 4926,
      "Ġgrandmother": 4927,
      "Ġwond": 4928,
      "Ġpil": 4929,
      "Ġnar": 4930,
      "cend": 4931,
      "Ġlie": 4932,
      "Ġmanip": 4933,
      "Ġresc": 4934,
      "Ġletters": 4935,
      "Ġfeelings": 4936,
      "Ġplayer": 4937,
      "Ġconsist": 4938,
      "Ġpossibilities": 4939,
      "iency": 4940,
      "Ġcutting": 4941,
      "Ġreaction": 4942,
      "Ġchemicals": 4943,
      "Ġmanagement": 4944,
      "Ġfossil": 4945,
      "fish": 4946,
      "hi": 4947,
      "zed": 4948,
      "Ġsources": 4949,
      "organ": 4950,
      "Ġgall": 4951,
      "Ġkick": 4952,
      "Ġrat": 4953,
      "Ġwhenever": 4954,
      "abet": 4955,
      "Ġqual": 4956,
      "Ġexpression": 4957,
      "ĠGree": 4958,
      "ĠPakistan": 4959,
      "Ġblow": 4960,
      "Ġsurf": 4961,
      "Ġgrade": 4962,
      "Ġrecy": 4963,
      "Ġhealthcare": 4964,
      "Ġexpected": 4965,
      "Ġchemistry": 4966,
      "Ġestab": 4967,
      "Ġtrials": 4968,
      "Ġvariety": 4969,
      "Ġmosqu": 4970,
      "cers": 4971,
      "mas": 4972,
      "mber": 4973,
      "ener": 4974,
      "Ġgrain": 4975,
      "icip": 4976,
      "Ġperce": 4977,
      "Ġpray": 4978,
      "ĠWill": 4979,
      "ĠKing": 4980,
      "Ġwaves": 4981,
      "Ġmessages": 4982,
      "Ġcredit": 4983,
      "Ġbattery": 4984,
      "Ġempty": 4985,
      "life": 4986,
      "min": 4987,
      "Ġends": 4988,
      "Ġstock": 4989,
      "Ġlies": 4990,
      "Ġvote": 4991,
      "osition": 4992,
      "resident": 4993,
      "ĠBill": 4994,
      "ĠNe": 4995,
      "Ġunderneath": 4996,
      "Ġexperts": 4997,
      "Ġcrim": 4998,
      "Ġvideos": 4999,
      "Ġconstruction": 5000,
      "Ġcollection": 5001,
      "Ġillustr": 5002,
      "Ġreview": 5003,
      "olly": 5004,
      "hyth": 5005,
      "Ġdinosaurs": 5006,
      "Ġtomorrow": 5007,
      "Ġten": 5008,
      "Ġwake": 5009,
      "itness": 5010,
      "Ġhurt": 5011,
      "Ġpengu": 5012,
      "Ġfal": 5013,
      "ulating": 5014,
      "Ġrates": 5015,
      "acters": 5016,
      "Ġsolid": 5017,
      "what": 5018,
      "Ġcorruption": 5019,
      "Ġadvanced": 5020,
      "Ġbroke": 5021,
      "Ġrequires": 5022,
      "Ġmarriage": 5023,
      "Ġdynamic": 5024,
      "Ġexercise": 5025,
      "gl": 5026,
      "Ġlat": 5027,
      "Ġgang": 5028,
      "ests": 5029,
      "Ġuns": 5030,
      "ension": 5031,
      "ĠRep": 5032,
      "new": 5033,
      "Ġtransition": 5034,
      "Ġcharacters": 5035,
      "Ġlocation": 5036,
      "Ġmicros": 5037,
      "Ġilleg": 5038,
      "Ġconsumer": 5039,
      "ĠHarvard": 5040,
      "Ġrelatively": 5041,
      "Ġindependent": 5042,
      "ĠDarwin": 5043,
      "ael": 5044,
      "Ġshif": 5045,
      "Ġprove": 5046,
      "Ġchap": 5047,
      "Ġuser": 5048,
      "Ġteeth": 5049,
      "ogen": 5050,
      "Ġideal": 5051,
      "Ġthoughts": 5052,
      "Ġinterface": 5053,
      "Ġcarefully": 5054,
      "Ġ45": 5055,
      "Ġorganized": 5056,
      "Ġkeeping": 5057,
      "Chris": 5058,
      "Ġcartoon": 5059,
      "Ġsharks": 5060,
      "Ġfortun": 5061,
      "Ġroughly": 5062,
      "Ġrapidly": 5063,
      "Ġvaluable": 5064,
      "Ġsophistic": 5065,
      "See": 5066,
      "rs": 5067,
      "Ġgift": 5068,
      "Ġisol": 5069,
      "Ġbee": 5070,
      "Their": 5071,
      "Ġmyst": 5072,
      "Ġteles": 5073,
      "Ġvoices": 5074,
      "Ġevil": 5075,
      "ĠBar": 5076,
      "Ġdesk": 5077,
      "Ġfewer": 5078,
      "Ġcultures": 5079,
      "Ġlawy": 5080,
      "iques": 5081,
      "Ġrepresents": 5082,
      "Ġprivile": 5083,
      "Ġfacing": 5084,
      "Ġemerging": 5085,
      "Ġcapture": 5086,
      "ĠSwed": 5087,
      "Ġbudget": 5088,
      "Ġepidemic": 5089,
      "Ġexchange": 5090,
      "Ã©": 5091,
      "aters": 5092,
      "Ġhang": 5093,
      "Ġlength": 5094,
      "Ġgain": 5095,
      "Ġchart": 5096,
      "ĠApp": 5097,
      "Ġ2000": 5098,
      "Ġprefer": 5099,
      "Ġproducing": 5100,
      "Ġsla": 5101,
      "Ġgenerate": 5102,
      "Ġspecifically": 5103,
      "Ġmember": 5104,
      "Ġbehaviors": 5105,
      "Ġsympt": 5106,
      "Ġconvince": 5107,
      "Ġvictims": 5108,
      "Ġdisplay": 5109,
      "Ġvulnerable": 5110,
      "Ġinterpret": 5111,
      "gets": 5112,
      "Ġcards": 5113,
      "Ġbul": 5114,
      "Ġpal": 5115,
      "Ġpure": 5116,
      "Ġlic": 5117,
      "Ġnations": 5118,
      "state": 5119,
      "lying": 5120,
      "ĠCo": 5121,
      "Ġflies": 5122,
      "ĠStreet": 5123,
      "Ġpassword": 5124,
      "Ġcameras": 5125,
      "Ġauth": 5126,
      "Ġeffectively": 5127,
      "pected": 5128,
      "onym": 5129,
      "Ġsituations": 5130,
      "Ġproperties": 5131,
      "Ġstatus": 5132,
      "Ġprimary": 5133,
      "Ġdisappear": 5134,
      "Ġencourage": 5135,
      "ĠCenter": 5136,
      "Ġhouses": 5137,
      "Ġentrepreneurs": 5138,
      "Ġchimpan": 5139,
      "ĠFrancisco": 5140,
      "Very": 5141,
      "can": 5142,
      "down": 5143,
      "over": 5144,
      "uh": 5145,
      "Ġpip": 5146,
      "Ġreven": 5147,
      "stream": 5148,
      "Ġmel": 5149,
      "Ġride": 5150,
      "Ġintr": 5151,
      "ĠSat": 5152,
      "ĠDon": 5153,
      "Ġemissions": 5154,
      "Ġbran": 5155,
      "ĠJew": 5156,
      "Ġextract": 5157,
      "Ġreprodu": 5158,
      "Ġbottle": 5159,
      "Ġdepends": 5160,
      "ĠCanada": 5161,
      "Ġdetails": 5162,
      "Ġlady": 5163,
      "ĠAtl": 5164,
      "ĠSchool": 5165,
      "Ġclaim": 5166,
      ".'": 5167,
      "Have": 5168,
      "eff": 5169,
      "mers": 5170,
      "uary": 5171,
      "Ġpian": 5172,
      "Ġflex": 5173,
      "icago": 5174,
      "irty": 5175,
      "Ġshall": 5176,
      "Ġshad": 5177,
      "uls": 5178,
      "osis": 5179,
      "Ġcontain": 5180,
      "Ġentertain": 5181,
      "Ġmovements": 5182,
      "ĠInstitute": 5183,
      "Ġadded": 5184,
      "Ġviruses": 5185,
      "Ġrelease": 5186,
      "Ġinstrument": 5187,
      "Ġhydrogen": 5188,
      "Ġkitch": 5189,
      "Ġspin": 5190,
      "ĠBen": 5191,
      "ĠGreen": 5192,
      "ĠRed": 5193,
      "Ġarts": 5194,
      "Everybody": 5195,
      "Ġcarrying": 5196,
      "Ġhypoth": 5197,
      "Ġlifetime": 5198,
      "Americ": 5199,
      "eal": 5200,
      "ym": 5201,
      "Ġsight": 5202,
      "Ġcure": 5203,
      "itan": 5204,
      "Ġinev": 5205,
      "Ġlect": 5206,
      "ĠII": 5207,
      "Ġexec": 5208,
      "Ġmaps": 5209,
      "Ġsugar": 5210,
      "ĠGDP": 5211,
      "ĠPresident": 5212,
      "chnology": 5213,
      "ĠChicago": 5214,
      "Ġinterests": 5215,
      "Ġgenerally": 5216,
      "Ġdefine": 5217,
      "Ġpoliticians": 5218,
      "Ġassign": 5219,
      "Ġ99": 5220,
      "Ġradical": 5221,
      "Ġsending": 5222,
      "Ġpromise": 5223,
      "Ġmathematical": 5224,
      "Ġmolecular": 5225,
      "Ġmortality": 5226,
      "Ġcircumst": 5227,
      "itals": 5228,
      "itarian": 5229,
      "Ġped": 5230,
      "Ġgay": 5231,
      "igm": 5232,
      "Ġliqu": 5233,
      "ĠCE": 5234,
      "Ġhowever": 5235,
      "abilities": 5236,
      "Ġunit": 5237,
      "ĠHa": 5238,
      "Ġacqu": 5239,
      "Ġremain": 5240,
      "ĠAnderson": 5241,
      "Ġengaged": 5242,
      "Ġgrid": 5243,
      "Ġrisks": 5244,
      "Everything": 5245,
      "Ġreleased": 5246,
      "Ġhonor": 5247,
      "Ġdiscussion": 5248,
      "Ġprepared": 5249,
      "Ġofficial": 5250,
      "ĠMuslim": 5251,
      "Ġcomponents": 5252,
      "ĠNigeria": 5253,
      "Audience": 5254,
      "fit": 5255,
      "log": 5256,
      "pher": 5257,
      "Ġbeach": 5258,
      "Ġstaff": 5259,
      "Ġring": 5260,
      "Ġtrillion": 5261,
      "Ġunex": 5262,
      "Ġdish": 5263,
      "ĠLos": 5264,
      "ĠRichard": 5265,
      "Ġsmile": 5266,
      "Ġtechniques": 5267,
      "olds": 5268,
      "Ġminim": 5269,
      "Ġregions": 5270,
      "Ġoccup": 5271,
      "Ġselling": 5272,
      "Ġsnow": 5273,
      "Ġintroduce": 5274,
      "Ġintroduced": 5275,
      "Ġsample": 5276,
      "Ġgraduate": 5277,
      "Ġrestaurant": 5278,
      "11": 5279,
      "Tube": 5280,
      "aving": 5281,
      "Ġbow": 5282,
      "Ġbath": 5283,
      "Ġfisher": 5284,
      "alt": 5285,
      "oting": 5286,
      "rog": 5287,
      "Ġgoals": 5288,
      "Ġatoms": 5289,
      "Ġrom": 5290,
      "Ġrub": 5291,
      "Ġspo": 5292,
      "Ġspring": 5293,
      "Ġcompar": 5294,
      "ĠEl": 5295,
      "Ġbuying": 5296,
      "Ġbubble": 5297,
      "Ġmetal": 5298,
      "Ġserve": 5299,
      "Ġconvention": 5300,
      "Ġprofession": 5301,
      "Ġwinter": 5302,
      "Ġanalog": 5303,
      "Ġterrorism": 5304,
      "ĠCongress": 5305,
      "Ġorgans": 5306,
      "Ġestablish": 5307,
      "bors": 5308,
      "fl": 5309,
      "Ġthin": 5310,
      "atin": 5311,
      "ĠEinstein": 5312,
      "Ġfactor": 5313,
      "Ġfactors": 5314,
      "cont": 5315,
      "Ġdrag": 5316,
      "Ġsteel": 5317,
      "Ġemployees": 5318,
      "Ġencoura": 5319,
      "Ġmalaria": 5320,
      "Ġpleasure": 5321,
      "Ġforgot": 5322,
      "Ġabstract": 5323,
      "80": 5324,
      "Ġsan": 5325,
      "Ġsides": 5326,
      "erved": 5327,
      "Ġformer": 5328,
      "Ġsphere": 5329,
      "ĠCam": 5330,
      "Ġworlds": 5331,
      "Ġthanks": 5332,
      "Ġunus": 5333,
      "ĠGP": 5334,
      "ĠGh": 5335,
      "ĠPac": 5336,
      "ĠNot": 5337,
      "Ġinvention": 5338,
      "Ġgravity": 5339,
      "Ġmedium": 5340,
      "Ġenvironments": 5341,
      "Ġradiation": 5342,
      "Ġprotection": 5343,
      "Ġhyper": 5344,
      "Does": 5345,
      "Ġhorse": 5346,
      "porary": 5347,
      "Ġdefinitely": 5348,
      "Ġblocks": 5349,
      "ĠAnge": 5350,
      "Ġmistake": 5351,
      "Ġnewspaper": 5352,
      "Ġmirror": 5353,
      "Good": 5354,
      "uel": 5355,
      "Ġbill": 5356,
      "Ġmer": 5357,
      "etics": 5358,
      "Ġque": 5359,
      "Ġphr": 5360,
      "Ġinstall": 5361,
      "Ġ196": 5362,
      "Ġlessons": 5363,
      "Ġruns": 5364,
      "Ġregard": 5365,
      "Ġscared": 5366,
      "Ġpractical": 5367,
      "Ġcombination": 5368,
      "Ġaffected": 5369,
      "Ġpollution": 5370,
      "Ġmountains": 5371,
      "Ġspectrum": 5372,
      "Ġtumor": 5373,
      "bur": 5374,
      "hone": 5375,
      "iat": 5376,
      "Ġoption": 5377,
      "orous": 5378,
      "icing": 5379,
      "Ġconver": 5380,
      "Ġens": 5381,
      "ĠMil": 5382,
      "Ġclip": 5383,
      "ĠTe": 5384,
      "ĠTur": 5385,
      "ĠNob": 5386,
      "Ġgoods": 5387,
      "ĠWik": 5388,
      "Ġdriven": 5389,
      "ĠYouTube": 5390,
      "Ġautonom": 5391,
      "Ġrefer": 5392,
      "Ġassist": 5393,
      "Ġrecorded": 5394,
      "Ġtypically": 5395,
      "Ġreached": 5396,
      "Ġdemocratic": 5397,
      "Ġevolutionary": 5398,
      "ĠAmaz": 5399,
      "Ġseason": 5400,
      "riend": 5401,
      "Ġopinion": 5402,
      "Ġkitchen": 5403,
      "Could": 5404,
      "lines": 5405,
      "Ġtank": 5406,
      "Ġcortex": 5407,
      "Ġbare": 5408,
      "ingu": 5409,
      "Ġfishing": 5410,
      "esh": 5411,
      "olving": 5412,
      "eline": 5413,
      "Ġworldwide": 5414,
      "Ġperception": 5415,
      "Ġclock": 5416,
      "ternal": 5417,
      "Ġcenters": 5418,
      "Ġinclude": 5419,
      "Ġpulled": 5420,
      "Ġneighbors": 5421,
      "Ġestim": 5422,
      "Ġaftern": 5423,
      "Ġingred": 5424,
      "Ġfalse": 5425,
      "500": 5426,
      "Since": 5427,
      "ss": 5428,
      "uits": 5429,
      "Ġought": 5430,
      "Ġcere": 5431,
      "ita": 5432,
      "Ġeld": 5433,
      "sec": 5434,
      "urance": 5435,
      "Ġdogs": 5436,
      "Ġrational": 5437,
      "ĠSm": 5438,
      "Ġactions": 5439,
      "ĠMo": 5440,
      "ĠGen": 5441,
      "ĠTr": 5442,
      "Ġsinging": 5443,
      "Ġkeeps": 5444,
      "Ġliterature": 5445,
      "Ġpsychology": 5446,
      "Ġprivacy": 5447,
      "Ġrequired": 5448,
      "Ġtraveling": 5449,
      "Ġrelevant": 5450,
      "Ġforests": 5451,
      "Ġsatis": 5452,
      "Ġdropped": 5453,
      "Ġcollaboration": 5454,
      "point": 5455,
      "Ġchicken": 5456,
      "Ġsophisticated": 5457,
      "Last": 5458,
      "ean": 5459,
      "ham": 5460,
      "Ġcast": 5461,
      "Ġmira": 5462,
      "Ġdip": 5463,
      "Ġinput": 5464,
      "oos": 5465,
      "Ġsevere": 5466,
      "Ġnotes": 5467,
      "Ġplus": 5468,
      "Ġfeature": 5469,
      "Ġfeatures": 5470,
      "Ġdiss": 5471,
      "Ġadj": 5472,
      "Ġapplied": 5473,
      "Ġpersonally": 5474,
      "Ġnaturally": 5475,
      "Ġharvest": 5476,
      "ĠPhil": 5477,
      "Ġparticipate": 5478,
      "Ġvehicles": 5479,
      "gment": 5480,
      "spe": 5481,
      "Ġcord": 5482,
      "Ġhits": 5483,
      "usive": 5484,
      "Ġreci": 5485,
      "Ġju": 5486,
      "umps": 5487,
      "Ġvent": 5488,
      "abled": 5489,
      "Ġperman": 5490,
      "Ġaging": 5491,
      "Ġtechnological": 5492,
      "Ġskill": 5493,
      "Ġcourage": 5494,
      "Ġ2008": 5495,
      "arrass": 5496,
      "Ġ75": 5497,
      "Ġsenses": 5498,
      "Ġdestruction": 5499,
      "Ġmeaningful": 5500,
      "Ġcombined": 5501,
      "Ġrocket": 5502,
      "Ġfundamentally": 5503,
      "Ġultimate": 5504,
      "Anyway": 5505,
      "Ġhoping": 5506,
      "Ġancestors": 5507,
      "Ġsports": 5508,
      "Ġillegal": 5509,
      "Ġliquid": 5510,
      "Ġunusual": 5511,
      "Ġwine": 5512,
      "Ġbicy": 5513,
      "Ġmile": 5514,
      "Ġdedic": 5515,
      "ifth": 5516,
      "Ġasp": 5517,
      "Ġrig": 5518,
      "ums": 5519,
      "ĠBer": 5520,
      "ĠBro": 5521,
      "ĠGal": 5522,
      "Ġremo": 5523,
      "Ġscore": 5524,
      "Ġglam": 5525,
      "oston": 5526,
      "Ġformed": 5527,
      "Ġtopic": 5528,
      "Ġincreased": 5529,
      "Ġoperate": 5530,
      "Ġstronger": 5531,
      "Ġmechanism": 5532,
      "ĠFrank": 5533,
      "Ġawareness": 5534,
      "Ġefficiency": 5535,
      "Ġactivities": 5536,
      "Ġalgorithms": 5537,
      "Ġeggs": 5538,
      "Ġafternoon": 5539,
      "oly": 5540,
      "vable": 5541,
      "xim": 5542,
      "itual": 5543,
      "Ġsees": 5544,
      "osh": 5545,
      "Ġacting": 5546,
      "Ġunderwater": 5547,
      "Ġpregn": 5548,
      "ework": 5549,
      "Ġsolved": 5550,
      "Ġprocessing": 5551,
      "Ġfunctions": 5552,
      "Ġclever": 5553,
      "Ġphysically": 5554,
      "Ġmemories": 5555,
      "Ġtrend": 5556,
      "Ġrecords": 5557,
      "Ġsunlight": 5558,
      "Ġembarrass": 5559,
      "Ġinternal": 5560,
      "Ġhospitals": 5561,
      "Ġ1990": 5562,
      "Ġ2010": 5563,
      "Ġmistakes": 5564,
      "Ġframework": 5565,
      "Ġoccurred": 5566,
      "Ġsweet": 5567,
      "ĠGeorge": 5568,
      "Ġtransportation": 5569,
      "Ġmanufacturing": 5570,
      "ĠRussia": 5571,
      "Ġaccompl": 5572,
      "ĠNASA": 5573,
      "cred": 5574,
      "scale": 5575,
      "uper": 5576,
      "enced": 5577,
      "Ġpair": 5578,
      "Ġpitch": 5579,
      "Ġinequ": 5580,
      "Ġgut": 5581,
      "Ġwash": 5582,
      "ĠOb": 5583,
      "Ġstudio": 5584,
      "Thanks": 5585,
      "Ġfoundation": 5586,
      "Ġ194": 5587,
      "Ġbiom": 5588,
      "gged": 5589,
      "Ġtests": 5590,
      "Ġjoke": 5591,
      "Ġempathy": 5592,
      "Ġcooking": 5593,
      "Ġsurvey": 5594,
      "Ġgarden": 5595,
      "Ġastronom": 5596,
      "Perhaps": 5597,
      "Bas": 5598,
      "bre": 5599,
      "bed": 5600,
      "making": 5601,
      "nel": 5602,
      "za": 5603,
      "Ġwitness": 5604,
      "asks": 5605,
      "ula": 5606,
      "Ġmak": 5607,
      "Ġtheme": 5608,
      "Ġtrig": 5609,
      "Ġsomewhat": 5610,
      "aren": 5611,
      "ĠBank": 5612,
      "ĠBoston": 5613,
      "being": 5614,
      "Ġconservation": 5615,
      "Ġsuppose": 5616,
      "Ġmusical": 5617,
      "Ġequally": 5618,
      "Ġlargely": 5619,
      "Ġfalling": 5620,
      "Ġdomin": 5621,
      "ĠFrance": 5622,
      "cription": 5623,
      "ĠPacific": 5624,
      "Os": 5625,
      "Please": 5626,
      "Yet": 5627,
      "Ġwars": 5628,
      "Ġfert": 5629,
      "Ġiniti": 5630,
      "Ġnav": 5631,
      "Three": 5632,
      "Ġstorm": 5633,
      "Ġshame": 5634,
      "While": 5635,
      "abol": 5636,
      "Ġcoord": 5637,
      "Ġprime": 5638,
      "Ġdiscipl": 5639,
      "ĠLife": 5640,
      "Ġdrives": 5641,
      "Ġcomputing": 5642,
      "Ġadvice": 5643,
      "Ġcollected": 5644,
      "retch": 5645,
      "Ġamounts": 5646,
      "Ġhoriz": 5647,
      "Ġbirthday": 5648,
      "Ġburning": 5649,
      "Ġproteins": 5650,
      "Ġtape": 5651,
      "Ġdramatic": 5652,
      "Ġswimming": 5653,
      "Ġdoubt": 5654,
      "Ġlaptop": 5655,
      "fortunately": 5656,
      "mm": 5657,
      "ta": 5658,
      "vis": 5659,
      "ĠThese": 5660,
      "Ġcave": 5661,
      "itz": 5662,
      "Ġhung": 5663,
      "Ġdiction": 5664,
      "sem": 5665,
      "Ġanx": 5666,
      "Ġcha": 5667,
      "Ġbutton": 5668,
      "Ġclub": 5669,
      "ĠTo": 5670,
      "berg": 5671,
      "Ġdesper": 5672,
      "ĠJames": 5673,
      "Ġdecl": 5674,
      "Ġapparent": 5675,
      "whel": 5676,
      "Ġvisible": 5677,
      "Ġfigures": 5678,
      "Ġadvent": 5679,
      "ended": 5680,
      "Ġprotected": 5681,
      "Ġpotentially": 5682,
      "Ġphotographs": 5683,
      "Ġsilence": 5684,
      "Ġconclusion": 5685,
      "Ġconcrete": 5686,
      "Ġantibiot": 5687,
      "70": 5688,
      "night": 5689,
      "rat": 5690,
      "source": 5691,
      "xide": 5692,
      "Ġsets": 5693,
      "Ġtoy": 5694,
      "Ġfake": 5695,
      "Ġupper": 5696,
      "Ġsuit": 5697,
      "ĠMont": 5698,
      "ĠPort": 5699,
      "angers": 5700,
      "Ġload": 5701,
      "Ġcontrast": 5702,
      "elly": 5703,
      "akers": 5704,
      "Ġpercentage": 5705,
      "Ġelection": 5706,
      "Ġ1960": 5707,
      "hips": 5708,
      "Ġpresence": 5709,
      "Ġdefined": 5710,
      "Ġconstant": 5711,
      "Ġpsychological": 5712,
      "Also": 5713,
      "Ġridic": 5714,
      "Ġtoxic": 5715,
      "Ġpiano": 5716,
      "ĠAmazon": 5717,
      "yn": 5718,
      "Ġvert": 5719,
      "Ġthick": 5720,
      "Ġcents": 5721,
      "isters": 5722,
      "Ġbes": 5723,
      "Ġrenew": 5724,
      "Ġchose": 5725,
      "ĠAre": 5726,
      "Ġquarter": 5727,
      "ĠGood": 5728,
      "Ġoverall": 5729,
      "Ġoverwhel": 5730,
      "Ġcontem": 5731,
      "Ġobst": 5732,
      "Ġcreature": 5733,
      "Ġstring": 5734,
      "Ġextinct": 5735,
      "ĠValley": 5736,
      "Ġconfidence": 5737,
      "Ġconfront": 5738,
      "Ġrooms": 5739,
      "Ġmarketing": 5740,
      "Ġsensitive": 5741,
      "Ġoperation": 5742,
      "Ġcritic": 5743,
      "Ġroads": 5744,
      "Ġtracking": 5745,
      "Ġconversations": 5746,
      "Ġsubjects": 5747,
      "Ġattacks": 5748,
      "Ġempower": 5749,
      "Ġadminist": 5750,
      "Ġframe": 5751,
      "ĠProject": 5752,
      "ĠiPhone": 5753,
      "Ġaccurate": 5754,
      "Ġtonight": 5755,
      "Ġexplanation": 5756,
      "Ar": 5757,
      "Rem": 5758,
      "foot": 5759,
      "inction": 5760,
      "Ġmere": 5761,
      "Ġhook": 5762,
      "Ġhunt": 5763,
      "Ġwel": 5764,
      "rob": 5765,
      "Ġritual": 5766,
      "Ġoutcome": 5767,
      "Ġintense": 5768,
      "ĠColl": 5769,
      "Ġremains": 5770,
      "Ġproductive": 5771,
      "Ġfilms": 5772,
      "Ġdiag": 5773,
      "aneously": 5774,
      "Ġproviding": 5775,
      "Ġinnovative": 5776,
      "Ġexisting": 5777,
      "Ġexplained": 5778,
      "Ġstayed": 5779,
      "Ġinspiration": 5780,
      "Ġsilk": 5781,
      "Ġsustainability": 5782,
      "Ġinfected": 5783,
      "Ġsurrounded": 5784,
      "Ġclothes": 5785,
      "Ġappropriate": 5786,
      "ollywood": 5787,
      "Ġcircumstances": 5788,
      "ls": 5789,
      "iture": 5790,
      "lly": 5791,
      "Ġlens": 5792,
      "aser": 5793,
      "Ġnurs": 5794,
      "owered": 5795,
      "Ġreject": 5796,
      "Ġreverse": 5797,
      "Ġorch": 5798,
      "estyle": 5799,
      "ĠAlex": 5800,
      "Ġcock": 5801,
      "Ġnowhere": 5802,
      "ankly": 5803,
      "obal": 5804,
      "Ġmonkey": 5805,
      "Ġrecom": 5806,
      "ĠStan": 5807,
      "Ġsubs": 5808,
      "Ġelectro": 5809,
      "Ġtested": 5810,
      "Ġclosely": 5811,
      "Ġpresentation": 5812,
      "Ġmeasured": 5813,
      "Ġcircuit": 5814,
      "Ġsongs": 5815,
      "Ġbreathe": 5816,
      "Ġassume": 5817,
      "Ġauthority": 5818,
      "Ġspiritual": 5819,
      "Ġelectronic": 5820,
      "iosity": 5821,
      "Ġflew": 5822,
      "Other": 5823,
      "tail": 5824,
      "itors": 5825,
      "Ġment": 5826,
      "Ġpill": 5827,
      "Ġfurn": 5828,
      "esome": 5829,
      "Ġdot": 5830,
      "Ġnest": 5831,
      "stand": 5832,
      "keys": 5833,
      "adic": 5834,
      "Ġcomment": 5835,
      "Ġchurch": 5836,
      "Ġuncom": 5837,
      "Ġunknown": 5838,
      "Ġresil": 5839,
      "Ġcommand": 5840,
      "Ġdecline": 5841,
      "Ġdiam": 5842,
      "Ġabsor": 5843,
      "Ġsensors": 5844,
      "Ġjoined": 5845,
      "Ġoptions": 5846,
      "Ġerror": 5847,
      "Ġ1980": 5848,
      "Ġapplications": 5849,
      "Ġwireless": 5850,
      "ĠParis": 5851,
      "Ġappreciate": 5852,
      "Ġhorrible": 5853,
      "Ġsplit": 5854,
      "den": 5855,
      "ih": 5856,
      "och": 5857,
      "oons": 5858,
      "Ġtack": 5859,
      "Ġbones": 5860,
      "Ġpin": 5861,
      "Ġpump": 5862,
      "Ġpapers": 5863,
      "Ġloud": 5864,
      "alu": 5865,
      "Ġwhales": 5866,
      "Ġears": 5867,
      "allel": 5868,
      "illing": 5869,
      "Ġjail": 5870,
      "Ġdeploy": 5871,
      "Ġvan": 5872,
      "Ġplate": 5873,
      "Ġevening": 5874,
      "ĠRes": 5875,
      "ĠRev": 5876,
      "Ġflower": 5877,
      "ĠJan": 5878,
      "Ġelev": 5879,
      "Ġdatab": 5880,
      "ĠState": 5881,
      "Ġeconomists": 5882,
      "Ġcurve": 5883,
      "Ġchallenging": 5884,
      "Ġzoom": 5885,
      "Ġdeaths": 5886,
      "Ġdepth": 5887,
      "herent": 5888,
      "Ġhousing": 5889,
      "Ġcontrolled": 5890,
      "Ġtherapy": 5891,
      "Ġtaste": 5892,
      "Ġsymptoms": 5893,
      "ĠAngeles": 5894,
      "Her": 5895,
      "cal": 5896,
      "look": 5897,
      "iters": 5898,
      "Ġboring": 5899,
      "Ġmad": 5900,
      "Ġhorm": 5901,
      "Ġpool": 5902,
      "Ġlying": 5903,
      "omas": 5904,
      "Ġwhist": 5905,
      "ipedia": 5906,
      "Ġdisg": 5907,
      "ptember": 5908,
      "ologically": 5909,
      "ĠDep": 5910,
      "Ġremove": 5911,
      "Ġrelate": 5912,
      "Ġtranspl": 5913,
      "Ġcenturies": 5914,
      "Ġhandle": 5915,
      "ĠUnion": 5916,
      "Ġ2007": 5917,
      "Ġadvance": 5918,
      "Ġstatement": 5919,
      "Ġprovided": 5920,
      "Only": 5921,
      "Ġmulti": 5922,
      "Ġcombine": 5923,
      "Ġvolume": 5924,
      "Ġsuffer": 5925,
      "Ġpassionate": 5926,
      "Ġlaboratory": 5927,
      "Ġfingers": 5928,
      "Ġsamples": 5929,
      "Ġgentlemen": 5930,
      "Ġnarrative": 5931,
      "ĠWho": 5932,
      "inations": 5933,
      "Ġnose": 5934,
      "Ġitem": 5935,
      "ĠMic": 5936,
      "ĠMart": 5937,
      "Ġwherever": 5938,
      "Ġimplement": 5939,
      "Ġ22": 5940,
      "athers": 5941,
      "Ġinstruct": 5942,
      "Ġcollapse": 5943,
      "Ġexploration": 5944,
      "Ġbusy": 5945,
      "Ġglobe": 5946,
      "Ġdistinct": 5947,
      "Ġallowing": 5948,
      "Ġautism": 5949,
      "Ġfalls": 5950,
      "Ġvillages": 5951,
      "Ġhotel": 5952,
      "Ġtransformed": 5953,
      "Ġflowers": 5954,
      "ounced": 5955,
      "Ġclouds": 5956,
      "Ġparadigm": 5957,
      "Unfortunately": 5958,
      "Ġchannel": 5959,
      "ĠGPS": 5960,
      "Am": 5961,
      "ault": 5962,
      "ounce": 5963,
      "eness": 5964,
      "Ġfan": 5965,
      "Ġweigh": 5966,
      "Ġstone": 5967,
      "anta": 5968,
      "que": 5969,
      "Ġoutc": 5970,
      "ĠMuseum": 5971,
      "ĠGulf": 5972,
      "Ġ23": 5973,
      "ĠLaw": 5974,
      "Ġtechnique": 5975,
      "tech": 5976,
      "Ġextent": 5977,
      "Ġbike": 5978,
      "Ġexplos": 5979,
      "Ġgras": 5980,
      "ographer": 5981,
      "Ġmemor": 5982,
      "Ġ600": 5983,
      "box": 5984,
      "Ġcyber": 5985,
      "Ġmarine": 5986,
      "Ġdivide": 5987,
      "ĠChristmas": 5988,
      "Ġdetermine": 5989,
      "Ġangry": 5990,
      "Basically": 5991,
      "Ġnavig": 5992,
      "Ab": 5993,
      "BG": 5994,
      "Talk": 5995,
      "fin": 5996,
      "father": 5997,
      "hour": 5998,
      "ĠWhere": 5999,
      "Ġicon": 6000,
      "Ġath": 6001,
      "Ġbarr": 6002,
      "Ġfiction": 6003,
      "Ġdress": 6004,
      "lymp": 6005,
      "Ġattend": 6006,
      "ateful": 6007,
      "emb": 6008,
      "Ġexpon": 6009,
      "Ġprize": 6010,
      "Ġpoly": 6011,
      "ĠPer": 6012,
      "Ġroot": 6013,
      "Ġhumor": 6014,
      "Ġcorres": 6015,
      "Ġstandards": 6016,
      "Ġprofit": 6017,
      "Ġmilk": 6018,
      "clear": 6019,
      "Ġbehavioral": 6020,
      "Ġencoun": 6021,
      "Ġfootprint": 6022,
      "Ġrocks": 6023,
      "Ġfaced": 6024,
      "Ġsuggests": 6025,
      "Ġpollen": 6026,
      "Ġcapitalism": 6027,
      "Ġlinked": 6028,
      "Ġlogic": 6029,
      "Ġfixed": 6030,
      "Ġinstruments": 6031,
      "Ġapplication": 6032,
      "Ġembrace": 6033,
      "Ġpolicies": 6034,
      "Ġmosquit": 6035,
      "dr": 6036,
      "hol": 6037,
      "uce": 6038,
      "Ġtent": 6039,
      "Ġsen": 6040,
      "nda": 6041,
      "nding": 6042,
      "Ġdancing": 6043,
      "otion": 6044,
      "iggs": 6045,
      "ola": 6046,
      "Ġru": 6047,
      "Ġvibr": 6048,
      "Ġsuic": 6049,
      "Ġenable": 6050,
      "ĠMon": 6051,
      "Ġimpl": 6052,
      "Ġdownload": 6053,
      "onscious": 6054,
      "Ġpolar": 6055,
      "Ġmush": 6056,
      "Ġorganism": 6057,
      "Ġbreed": 6058,
      "Ġlabel": 6059,
      "Ġlimits": 6060,
      "Ġidentical": 6061,
      "ĠSeptember": 6062,
      "Ġarmy": 6063,
      "Ġadmit": 6064,
      "Ġpuzzle": 6065,
      "ĠCharles": 6066,
      "Ġinfinite": 6067,
      "ĠRepublic": 6068,
      "gent": 6069,
      "mal": 6070,
      "well": 6071,
      "ato": 6072,
      "nded": 6073,
      "Ġborder": 6074,
      "Ġhur": 6075,
      "Ġpushing": 6076,
      "Ġgest": 6077,
      "vey": 6078,
      "etically": 6079,
      "sters": 6080,
      "Ġanger": 6081,
      "Ġhem": 6082,
      "iled": 6083,
      "Ġspinal": 6084,
      "Ġplans": 6085,
      "ĠOlymp": 6086,
      "acing": 6087,
      "Ġdecre": 6088,
      "Ġscar": 6089,
      "Ġcausing": 6090,
      "Ġyounger": 6091,
      "Ġeducational": 6092,
      "Ġreference": 6093,
      "Ġcontinued": 6094,
      "Ġdirector": 6095,
      "Ġfunding": 6096,
      "ĠThanks": 6097,
      "Ġmeasuring": 6098,
      "Ġoccasion": 6099,
      "Ġfeeding": 6100,
      "Ġarchitects": 6101,
      "Ġboxes": 6102,
      "Ġfloating": 6103,
      "Ġmechanical": 6104,
      "ĠMichael": 6105,
      "Ġimplications": 6106,
      "Ġpoorest": 6107,
      "Ġnarrow": 6108,
      "lock": 6109,
      "van": 6110,
      "Ġack": 6111,
      "esity": 6112,
      "Ġinject": 6113,
      "arant": 6114,
      "Ġwhale": 6115,
      "Ġselection": 6116,
      "Ġfright": 6117,
      "Ġfrankly": 6118,
      "Ġchocol": 6119,
      "Ġvag": 6120,
      "ĠAnt": 6121,
      "Ġacts": 6122,
      "Ġ250": 6123,
      "Ġdisorders": 6124,
      "Ġshell": 6125,
      "Ġguide": 6126,
      "Ġowners": 6127,
      "Ġcorals": 6128,
      "Ġequation": 6129,
      "Ġclasses": 6130,
      "Ġincreases": 6131,
      "Ġconstrain": 6132,
      "Ġanticip": 6133,
      "Ġgreenhouse": 6134,
      "Ġrobotic": 6135,
      "Ġtelephone": 6136,
      "Ġearthqu": 6137,
      "profit": 6138,
      "Ġmammals": 6139,
      "ĠSteve": 6140,
      "Ġvaccine": 6141,
      "connected": 6142,
      "Ġagreed": 6143,
      "belie": 6144,
      "Ġwondered": 6145,
      "onymous": 6146,
      "Ġunexpected": 6147,
      "ĠWikipedia": 6148,
      "90": 6149,
      "gly": 6150,
      "iety": 6151,
      "rors": 6152,
      "ups": 6153,
      "ingly": 6154,
      "Ġpy": 6155,
      "Ġfirm": 6156,
      "ota": 6157,
      "imeter": 6158,
      "ille": 6159,
      "illy": 6160,
      "ĠMed": 6161,
      "Ġclus": 6162,
      "ĠHiggs": 6163,
      "Ġpharm": 6164,
      "Ġoffered": 6165,
      "ĠFound": 6166,
      "Ġcarried": 6167,
      "Ġtransfer": 6168,
      "Ġinterf": 6169,
      "Ġ1950": 6170,
      "Ġelim": 6171,
      "Ġparking": 6172,
      "Ġsecure": 6173,
      "Ġexisted": 6174,
      "Ġarguments": 6175,
      "Ġviolent": 6176,
      "Ġdirections": 6177,
      "Ġobsessed": 6178,
      "Ġmathematic": 6179,
      "Ġbreathing": 6180,
      "Ġstruck": 6181,
      "Ġclinic": 6182,
      "Ġignor": 6183,
      "Ġdrinking": 6184,
      "Ġautomatically": 6185,
      "Ġirr": 6186,
      "ĠMuslims": 6187,
      "Ġlibrary": 6188,
      "Ġdiplom": 6189,
      "east": 6190,
      "iop": 6191,
      "erge": 6192,
      "itory": 6193,
      "Ġmice": 6194,
      "Ġdign": 6195,
      "ctic": 6196,
      "roso": 6197,
      "Ġstro": 6198,
      "Ġdozen": 6199,
      "Ġatom": 6200,
      "Ġproport": 6201,
      "Ġmyster": 6202,
      "Ġknock": 6203,
      "Ġspider": 6204,
      "Ġplaced": 6205,
      "emoc": 6206,
      "ĠTom": 6207,
      "ĠLatin": 6208,
      "Ġflood": 6209,
      "Ġinstinct": 6210,
      "heim": 6211,
      "Ġmonkeys": 6212,
      "Ġcareful": 6213,
      "Ġeconomies": 6214,
      "Ġ2009": 6215,
      "Ġzone": 6216,
      "Ġwindows": 6217,
      "Ġinteractions": 6218,
      "Ġperforming": 6219,
      "Ġrepresented": 6220,
      "Ġastero": 6221,
      "Ġdistributed": 6222,
      "Ġdramatically": 6223,
      "Ġscript": 6224,
      "Ġresistance": 6225,
      "Ġfabric": 6226,
      "Ġcosm": 6227,
      "Ġsurgeon": 6228,
      "Ġrecyc": 6229,
      "Ġmystery": 6230,
      "ban": 6231,
      "ias": 6232,
      "upp": 6233,
      "rets": 6234,
      "ata": 6235,
      "Ġcash": 6236,
      "Ġben": 6237,
      "Ġdense": 6238,
      "uting": 6239,
      "etch": 6240,
      "imp": 6241,
      "Ġstands": 6242,
      "amin": 6243,
      "Ġchip": 6244,
      "Ġrhyth": 6245,
      "Ġours": 6246,
      "aret": 6247,
      "Ġarrest": 6248,
      "Ġphase": 6249,
      "icted": 6250,
      "ĠJer": 6251,
      "Ġtraged": 6252,
      "while": 6253,
      "Ġgrateful": 6254,
      "Ġteams": 6255,
      "Ġconsumers": 6256,
      "Ġrecognition": 6257,
      "Ġmainly": 6258,
      "Ġspreading": 6259,
      "Ġproperly": 6260,
      "Ġdomestic": 6261,
      "Ġbombs": 6262,
      "Ġcelebrate": 6263,
      "Something": 6264,
      "Ġcomponent": 6265,
      "Ġcorporate": 6266,
      "Ġelephant": 6267,
      "Ġtoilet": 6268,
      "Ġoutcomes": 6269,
      "Finally": 6270,
      "bage": 6271,
      "wich": 6272,
      "Ġsed": 6273,
      "otes": 6274,
      "eters": 6275,
      "struct": 6276,
      "Ġstyle": 6277,
      "illance": 6278,
      "Ġneither": 6279,
      "ĠAir": 6280,
      "ĠSa": 6281,
      "aint": 6282,
      "Ġtab": 6283,
      "Ġovercome": 6284,
      "ĠJul": 6285,
      "ĠUS": 6286,
      "Ġcollaps": 6287,
      "Ġsolving": 6288,
      "Ġmetabol": 6289,
      "Ġengaging": 6290,
      "Ġpopulations": 6291,
      "Ġ2005": 6292,
      "Ġexcl": 6293,
      "Ġhousehold": 6294,
      "Ġillusion": 6295,
      "Ġaston": 6296,
      "Ġlifestyle": 6297,
      "Ġsavings": 6298,
      "Ġprototype": 6299,
      "Ġenemy": 6300,
      "abetes": 6301,
      "Ġpenguins": 6302,
      "called": 6303,
      "iance": 6304,
      "oca": 6305,
      "Ġtight": 6306,
      "Ġtube": 6307,
      "isl": 6308,
      "Ġborders": 6309,
      "Ġmales": 6310,
      "Ġhoney": 6311,
      "iform": 6312,
      "Ġtea": 6313,
      "ĠMe": 6314,
      "Ġprices": 6315,
      "ĠRob": 6316,
      "Ġscary": 6317,
      "Ġobesity": 6318,
      "Ġstoryt": 6319,
      "Ġgrows": 6320,
      "Ġhardware": 6321,
      "Ġbiod": 6322,
      "Ġcolum": 6323,
      "Ġpainful": 6324,
      "Ġfilter": 6325,
      "Ġcrack": 6326,
      "appy": 6327,
      "Ġpractices": 6328,
      "Ġreceive": 6329,
      "iveness": 6330,
      "Ġ1970": 6331,
      "Ġcontrolling": 6332,
      "Ġmaintain": 6333,
      "ĠKorea": 6334,
      "Ġphrase": 6335,
      "Ġobstac": 6336,
      "Ġacknow": 6337,
      "bal": 6338,
      "rary": 6339,
      "tes": 6340,
      "Ġlung": 6341,
      "Ġloop": 6342,
      "Ġstack": 6343,
      "Ġstretch": 6344,
      "through": 6345,
      "ams": 6346,
      "Ġsem": 6347,
      "Ġproced": 6348,
      "rous": 6349,
      "Ġseek": 6350,
      "Ġtries": 6351,
      "Ġplenty": 6352,
      "Ġworker": 6353,
      "ĠMount": 6354,
      "ĠHaw": 6355,
      "ĠPe": 6356,
      "ĠLa": 6357,
      "ĠFe": 6358,
      "aks": 6359,
      "Ġsmoke": 6360,
      "Ġbrothers": 6361,
      "Ġraising": 6362,
      "Ġlets": 6363,
      "Ġconserv": 6364,
      "Ġgrab": 6365,
      "Ġentered": 6366,
      "Ġpolio": 6367,
      "Ġstri": 6368,
      "Ġpresented": 6369,
      "Ġgray": 6370,
      "Ġrecording": 6371,
      "Ġentrepreneur": 6372,
      "Ġcooperation": 6373,
      "Ġphilosophy": 6374,
      "Ġdestroyed": 6375,
      "Ġexhibition": 6376,
      "Ġprecisely": 6377,
      "Ġacademic": 6378,
      "ĠSweden": 6379,
      "Ġlicense": 6380,
      "Ġromantic": 6381,
      "Ġconventional": 6382,
      "ĠGhana": 6383,
      "Ġinequality": 6384,
      "ĠObama": 6385,
      "Ġantibiotics": 6386,
      "ĠRevolution": 6387,
      "ĠFoundation": 6388,
      "10": 6389,
      "sum": 6390,
      "Ġsales": 6391,
      "Ġpour": 6392,
      "edy": 6393,
      "Ġlun": 6394,
      "rade": 6395,
      "Ġabuse": 6396,
      "Ġgolf": 6397,
      "Ġneut": 6398,
      "ogue": 6399,
      "ĠMa": 6400,
      "ĠMal": 6401,
      "ĠEm": 6402,
      "ĠEth": 6403,
      "ĠHouse": 6404,
      "ello": 6405,
      "Ġpretend": 6406,
      "Ġraw": 6407,
      "Ġappeared": 6408,
      "Ġdesigns": 6409,
      "Ġslides": 6410,
      "Ġparticle": 6411,
      "Ġconnecting": 6412,
      "Ġparallel": 6413,
      "Ġrising": 6414,
      "Ġexpectations": 6415,
      "Ġtraveled": 6416,
      "Ġconcepts": 6417,
      "Ġimmune": 6418,
      "Ġprinting": 6419,
      "Ġsculpture": 6420,
      "Ġuncertain": 6421,
      "Ġtitle": 6422,
      "Ġvessels": 6423,
      "Ġscenar": 6424,
      "ĠApple": 6425,
      "ĠJanuary": 6426,
      "Come": 6427,
      "PA": 6428,
      "top": 6429,
      "wr": 6430,
      "walk": 6431,
      "Ġtip": 6432,
      "Ġtasks": 6433,
      "oned": 6434,
      "Ġdict": 6435,
      "Ġdio": 6436,
      "Ġdensity": 6437,
      "astern": 6438,
      "Ġstere": 6439,
      "cean": 6440,
      "raction": 6441,
      "Ġexcell": 6442,
      "ĠAc": 6443,
      "Ġ27": 6444,
      "Ġpocket": 6445,
      "Ġguarant": 6446,
      "Ġpersonality": 6447,
      "Ġimagined": 6448,
      "Before": 6449,
      "Ġexplo": 6450,
      "Ġwalks": 6451,
      "Ġaccum": 6452,
      "Ġcolony": 6453,
      "Ġsurely": 6454,
      "Ġclassic": 6455,
      "ĠHealth": 6456,
      "apping": 6457,
      "Ġinteractive": 6458,
      "Ġdepartment": 6459,
      "Ġembedd": 6460,
      "Ġemergency": 6461,
      "Ġdepending": 6462,
      "Ġtranslate": 6463,
      "Ġappears": 6464,
      "Ġfascinated": 6465,
      "Ġspectac": 6466,
      "Ġthrown": 6467,
      "Ġsurveillance": 6468,
      "Ġrepeat": 6469,
      "Ġattached": 6470,
      "Ġlatest": 6471,
      "Ġentertainment": 6472,
      "Ġlecture": 6473,
      "Ġpermanent": 6474,
      "Ġrecommend": 6475,
      "Ġmushroom": 6476,
      "Te": 6477,
      "gers": 6478,
      "power": 6479,
      "Ġtill": 6480,
      "Ġmim": 6481,
      "Ġyield": 6482,
      "iders": 6483,
      "erences": 6484,
      "keep": 6485,
      "Ġliver": 6486,
      "Ġate": 6487,
      "Ġorbit": 6488,
      "ape": 6489,
      "udes": 6490,
      "Ġwhereas": 6491,
      "ĠBudd": 6492,
      "Ġunits": 6493,
      "Ġdisorder": 6494,
      "ĠLeg": 6495,
      "Ġcommitted": 6496,
      "Ġprem": 6497,
      "Ġwriter": 6498,
      "ubes": 6499,
      "ocal": 6500,
      "Ġshoulder": 6501,
      "Ġlovely": 6502,
      "Ġbehave": 6503,
      "Ġexploring": 6504,
      "pring": 6505,
      "Ġhearts": 6506,
      "ĠIsland": 6507,
      "Ġinteracting": 6508,
      "Ġreaching": 6509,
      "Ġgeomet": 6510,
      "Ġawesome": 6511,
      "Ġdivided": 6512,
      "Ġlaughing": 6513,
      "ĠCongo": 6514,
      "Ġconcert": 6515,
      "ĠIslamic": 6516,
      "Ġhabitat": 6517,
      "Ġcandid": 6518,
      "Ġcommitment": 6519,
      "Ġhunger": 6520,
      "Ġrescue": 6521,
      "ĠNobel": 6522,
      "arency": 6523,
      "Ġfurniture": 6524,
      "Ġchocolate": 6525,
      "rosoft": 6526,
      "SS": 6527,
      "gic": 6528,
      "uous": 6529,
      "under": 6530,
      "Ġther": 6531,
      "aming": 6532,
      "Ġugly": 6533,
      "Ġdelic": 6534,
      "earch": 6535,
      "quar": 6536,
      "Ġusual": 6537,
      "Ġplot": 6538,
      "ĠGold": 6539,
      "ĠJune": 6540,
      "Ġpersu": 6541,
      "Ġinvolves": 6542,
      "Ġscream": 6543,
      "Ġrepair": 6544,
      "Ġmuscles": 6545,
      "Ġcuriosity": 6546,
      "Ġbreaking": 6547,
      "Ġtreating": 6548,
      "Ġdiabetes": 6549,
      "Ġrecognized": 6550,
      "Ġmagnetic": 6551,
      "related": 6552,
      "Ġpaintings": 6553,
      "Ġmanufacture": 6554,
      "Ġcustomers": 6555,
      "Ġrecovery": 6556,
      "Ġaxis": 6557,
      "Ġspoken": 6558,
      "Remember": 6559,
      "Ġdioxide": 6560,
      "DH": 6561,
      "Nob": 6562,
      "hatt": 6563,
      "iated": 6564,
      "uk": 6565,
      "inals": 6566,
      "Ġtoler": 6567,
      "Ġpace": 6568,
      "orking": 6569,
      "that": 6570,
      "think": 6571,
      "Ġsection": 6572,
      "Ġshr": 6573,
      "Ġchest": 6574,
      "Ġrush": 6575,
      "ĠAct": 6576,
      "osen": 6577,
      "Ġsacr": 6578,
      "ĠHom": 6579,
      "ĠDay": 6580,
      "ĠRw": 6581,
      "Ġflash": 6582,
      "Ġbrown": 6583,
      "Ġplays": 6584,
      "Ġgla": 6585,
      "azz": 6586,
      "Ġfinance": 6587,
      "Ġcontrovers": 6588,
      "Ġsigned": 6589,
      "Ġopposed": 6590,
      "arrator": 6591,
      "Ġproductivity": 6592,
      "Ġ65": 6593,
      "ĠArt": 6594,
      "ĠSecond": 6595,
      "Ġballoon": 6596,
      "Ġestimate": 6597,
      "Ġachieved": 6598,
      "Ġceiling": 6599,
      "Ġvirtually": 6600,
      "Ġconcern": 6601,
      "going": 6602,
      "Ġshooting": 6603,
      "Ġaspects": 6604,
      "About": 6605,
      "Ġpyram": 6606,
      "hattan": 6607,
      "MS": 6608,
      "Wow": 6609,
      "cence": 6610,
      "doll": 6611,
      "pass": 6612,
      "vas": 6613,
      "Ġtired": 6614,
      "Ġwings": 6615,
      "rey": 6616,
      "eration": 6617,
      "Ġpink": 6618,
      "org": 6619,
      "ida": 6620,
      "Ġassemb": 6621,
      "Ġmold": 6622,
      "Ġlikes": 6623,
      "Ġmaxim": 6624,
      "Ġwanting": 6625,
      "Ġtag": 6626,
      "agger": 6627,
      "ĠBab": 6628,
      "ĠBush": 6629,
      "ĠNG": 6630,
      "Ġsheep": 6631,
      "Ġmonitor": 6632,
      "Ġanimation": 6633,
      "Ġcorn": 6634,
      "Ġagenda": 6635,
      "Ġcheaper": 6636,
      "exas": 6637,
      "Ġescape": 6638,
      "Ġpurch": 6639,
      "Ġeradic": 6640,
      "Ġreported": 6641,
      "Ġconflicts": 6642,
      "Ġdisappeared": 6643,
      "Ġcolleague": 6644,
      "Ġsandwich": 6645,
      "Ġportra": 6646,
      "ĠCentral": 6647,
      "Ġscratch": 6648,
      "Ġrebuild": 6649,
      "ĠRobert": 6650,
      "Ġincentives": 6651,
      "Ġprivilege": 6652,
      "Ġadjust": 6653,
      "Ġbicycle": 6654,
      "Ġdignity": 6655,
      "Ġembedded": 6656,
      "AR": 6657,
      "nic": 6658,
      "oir": 6659,
      "Ġtro": 6660,
      "Ġcute": 6661,
      "Ġdiverse": 6662,
      "Ġgig": 6663,
      "level": 6664,
      "lete": 6665,
      "Ġbeg": 6666,
      "iday": 6667,
      "Ġaband": 6668,
      "Ġconven": 6669,
      "Ġvital": 6670,
      "Ġbackwards": 6671,
      "ĠPeople": 6672,
      "ĠTor": 6673,
      "ĠLook": 6674,
      "Ġheroes": 6675,
      "phones": 6676,
      "Ġpref": 6677,
      "Ġinsurance": 6678,
      "Ġproduces": 6679,
      "Ġmeter": 6680,
      "Ġhardly": 6681,
      "Ġgenerated": 6682,
      "Ġdevast": 6683,
      "Ġconstit": 6684,
      "class": 6685,
      "Ġlegisl": 6686,
      "Ġgrandfather": 6687,
      "ĠSec": 6688,
      "Ġapartment": 6689,
      "zees": 6690,
      "Ġaccepted": 6691,
      "Ġengagement": 6692,
      "Ġignore": 6693,
      "ĠManhattan": 6694,
      "Ġladies": 6695,
      "Ġneighborhoods": 6696,
      "Ġfrozen": 6697,
      "Ġvolunteers": 6698,
      "Ġauthent": 6699,
      "Ġremoved": 6700,
      "Ġvertical": 6701,
      "Ġorchest": 6702,
      "ĠStanford": 6703,
      "Ġdisgust": 6704,
      "Nobody": 6705,
      "Ah": 6706,
      "SP": 6707,
      "hen": 6708,
      "ras": 6709,
      "Ġcens": 6710,
      "Ġbon": 6711,
      "Ġlin": 6712,
      "leton": 6713,
      "Ġnit": 6714,
      "iment": 6715,
      "uration": 6716,
      "Ġstations": 6717,
      "Ġaside": 6718,
      "Ġshake": 6719,
      "tery": 6720,
      "Ġchamp": 6721,
      "Ġalien": 6722,
      "ĠCop": 6723,
      "Ġenh": 6724,
      "Ġunbelie": 6725,
      "ĠTexas": 6726,
      "ĠNations": 6727,
      "angle": 6728,
      "century": 6729,
      "phas": 6730,
      "ĠOx": 6731,
      "Ġtraum": 6732,
      "Ġscales": 6733,
      "oster": 6734,
      "Ġ32": 6735,
      "Ġboom": 6736,
      "Ġreput": 6737,
      "Ġinfl": 6738,
      "Ġorganize": 6739,
      "Ġdefend": 6740,
      "Ġcontinues": 6741,
      "Ġmeetings": 6742,
      "aws": 6743,
      "Ġlegit": 6744,
      "Ġlegacy": 6745,
      "Ġdarkness": 6746,
      "Ġfootball": 6747,
      "Ġreduction": 6748,
      "ĠThomas": 6749,
      "Ġfunctional": 6750,
      "Ġrainforest": 6751,
      "Ġcaptured": 6752,
      "Ġstrategies": 6753,
      "Ġjudge": 6754,
      "Ġnorthern": 6755,
      "Ġadopt": 6756,
      "Ġdolphins": 6757,
      "Ġtelescope": 6758,
      "Ġelder": 6759,
      "Ġdedicated": 6760,
      "ĠMicrosoft": 6761,
      "ĠEthiop": 6762,
      "fall": 6763,
      "part": 6764,
      "ua": 6765,
      "Ġtheories": 6766,
      "Ġcup": 6767,
      "arp": 6768,
      "Ġchosen": 6769,
      "andem": 6770,
      "ĠScience": 6771,
      "Ġactors": 6772,
      "Ġexpans": 6773,
      "Ġexposed": 6774,
      "Ġbubb": 6775,
      "Ġimper": 6776,
      "Ġflip": 6777,
      "Ġinstant": 6778,
      "Ġlaughter": 6779,
      "archy": 6780,
      "ĠSov": 6781,
      "Ġgovernance": 6782,
      "Ġglobally": 6783,
      "Ġcharity": 6784,
      "Ġequality": 6785,
      "lessly": 6786,
      "Ġcollecting": 6787,
      "Ġmissed": 6788,
      "Ġaccessible": 6789,
      "Ġsilent": 6790,
      "forward": 6791,
      "Ġdrove": 6792,
      "Ġuniversities": 6793,
      "Ġcontribute": 6794,
      "Ġcrying": 6795,
      "Ġoptimistic": 6796,
      "Ġsuspect": 6797,
      "Ġmotivation": 6798,
      "Ġalgorithm": 6799,
      "Ġpunish": 6800,
      "Ġpowers": 6801,
      "Ġadvertising": 6802,
      "Ġshadow": 6803,
      "ĠHaiti": 6804,
      "Ġhungry": 6805,
      "100": 6806,
      "hib": 6807,
      "iology": 6808,
      "Ġaim": 6809,
      "Ġbat": 6810,
      "Ġmarch": 6811,
      "Ġfulf": 6812,
      "anthrop": 6813,
      "Ġeast": 6814,
      "usions": 6815,
      "children": 6816,
      "Ġangle": 6817,
      "thal": 6818,
      "Ġmeg": 6819,
      "unclear": 6820,
      "Ġtri": 6821,
      "Ġevolve": 6822,
      "ptions": 6823,
      "ĠTalk": 6824,
      "Ġresolution": 6825,
      "ĠJack": 6826,
      "Ġfinds": 6827,
      "ĠUg": 6828,
      "Ġpatent": 6829,
      "Ġattrib": 6830,
      "Ġoldest": 6831,
      "Ġskull": 6832,
      "Ġprobability": 6833,
      "Ġdistant": 6834,
      "Ġparas": 6835,
      "Ġprovides": 6836,
      "Ġamongst": 6837,
      "Ġtouched": 6838,
      "Ġmechanics": 6839,
      "Ġsearching": 6840,
      "pox": 6841,
      "Ġefforts": 6842,
      "Ġweapon": 6843,
      "Ġhistorical": 6844,
      "Ġroute": 6845,
      "Ġtalent": 6846,
      "Ġinitial": 6847,
      "Ġneuroscience": 6848,
      "Ġmicroscope": 6849,
      "Ġsatisf": 6850,
      "Ġencounter": 6851,
      "Ġearthquake": 6852,
      "mun": 6853,
      "Ġtears": 6854,
      "Ġwip": 6855,
      "Ġborrow": 6856,
      "Ġhol": 6857,
      "Ġdust": 6858,
      "asy": 6859,
      "icop": 6860,
      "Ġyouth": 6861,
      "Ġbeer": 6862,
      "ulse": 6863,
      "Ġfruit": 6864,
      "ckets": 6865,
      "ĠMad": 6866,
      "Ġleap": 6867,
      "Ġquad": 6868,
      "Ġunp": 6869,
      "Ġ26": 6870,
      "Ġlocked": 6871,
      "Ġherself": 6872,
      "Ġletting": 6873,
      "Ġinvite": 6874,
      "Ġcarr": 6875,
      "Ġschol": 6876,
      "Ġminister": 6877,
      "ĠAfricans": 6878,
      "Ġelsewhere": 6879,
      "Ġcontrols": 6880,
      "ĠInternational": 6881,
      "Ġlimb": 6882,
      "Ġessence": 6883,
      "ietnam": 6884,
      "Ġfluid": 6885,
      "Ġneuron": 6886,
      "Ġfacial": 6887,
      "ĠChristian": 6888,
      "yright": 6889,
      "Ġsimplicity": 6890,
      "Ġelectronics": 6891,
      "Ġboundaries": 6892,
      "Ġseeds": 6893,
      "Ġsmooth": 6894,
      "Ġtransparent": 6895,
      "ĠAtlantic": 6896,
      "Ġbarely": 6897,
      "Ġingredients": 6898,
      "Ġapparently": 6899,
      "Ġtransplant": 6900,
      "Ġsuicide": 6901,
      "dollar": 6902,
      "Cl": 6903,
      "MA": 6904,
      "Ob": 6905,
      "Pl": 6906,
      "Sim": 6907,
      "Women": 6908,
      "cut": 6909,
      "case": 6910,
      "han": 6911,
      "nov": 6912,
      "Ġ0": 6913,
      "Ġid": 6914,
      "Ġwound": 6915,
      "Ġboss": 6916,
      "Ġpra": 6917,
      "Ġfifth": 6918,
      "Ġder": 6919,
      "Ġdump": 6920,
      "orter": 6921,
      "ari": 6922,
      "Ġgon": 6923,
      "Ġwet": 6924,
      "Ġrely": 6925,
      "Ġabund": 6926,
      "Ġjun": 6927,
      "Ġrating": 6928,
      "Ġintention": 6929,
      "ĠSam": 6930,
      "ĠSome": 6931,
      "astroph": 6932,
      "ardo": 6933,
      "Ġages": 6934,
      "Ġlob": 6935,
      "Ġspell": 6936,
      "Ġcontains": 6937,
      "Ġunderground": 6938,
      "Ġprev": 6939,
      "ĠJes": 6940,
      "ocin": 6941,
      "Ġobl": 6942,
      "Ġdrill": 6943,
      "Ġminor": 6944,
      "Ġaircraft": 6945,
      "Ġtrends": 6946,
      "Ġviews": 6947,
      "Ġinnovations": 6948,
      "Ġcommunications": 6949,
      "Ġmargin": 6950,
      "Ġheaven": 6951,
      "Ġutter": 6952,
      "Ġsymmetry": 6953,
      "Ġreefs": 6954,
      "Ġcriminal": 6955,
      "Ġpregnant": 6956,
      "Ġtragedy": 6957,
      "19": 6958,
      "ding": 6959,
      "ixt": 6960,
      "ka": 6961,
      "Ġhire": 6962,
      "Ġfib": 6963,
      "Ġdirty": 6964,
      "oral": 6965,
      "Ġlaser": 6966,
      "Ġna": 6967,
      "utch": 6968,
      "ura": 6969,
      "Ġstages": 6970,
      "cel": 6971,
      "Ġshrim": 6972,
      "Ġorange": 6973,
      "Ġconce": 6974,
      "ivered": 6975,
      "quare": 6976,
      "Ġintent": 6977,
      "Ġpoison": 6978,
      "ĠTal": 6979,
      "Ġlock": 6980,
      "Ġblank": 6981,
      "Ġrealm": 6982,
      "Ġafterwards": 6983,
      "Ġglad": 6984,
      "Ġpointed": 6985,
      "Ġvisited": 6986,
      "ĠVietnam": 6987,
      "Ġairport": 6988,
      "Ġ2004": 6989,
      "Ġparaly": 6990,
      "Ġretire": 6991,
      "Ġdelight": 6992,
      "Ġballs": 6993,
      "Ġlayers": 6994,
      "Ġmechanisms": 6995,
      "Ġlinks": 6996,
      "Ġmethods": 6997,
      "Ġsymbols": 6998,
      "Ġbeliefs": 6999,
      "Ġtransparency": 7000,
      "ĠPalest": 7001,
      "Ġsurfaces": 7002,
      "ĠJewish": 7003,
      "Ġdominant": 7004,
      "Ġfertil": 7005,
      "Ġuncomfort": 7006,
      "li": 7007,
      "rant": 7008,
      "rons": 7009,
      "war": 7010,
      "zens": 7011,
      "Ġthumb": 7012,
      "oust": 7013,
      "itate": 7014,
      "Ġhat": 7015,
      "Ġtoys": 7016,
      "Ġdive": 7017,
      "Ġdiver": 7018,
      "Ġlift": 7019,
      "oma": 7020,
      "rol": 7021,
      "igation": 7022,
      "Ġstable": 7023,
      "Ġseats": 7024,
      "Ġexternal": 7025,
      "Ġric": 7026,
      "Ġmail": 7027,
      "Ġyours": 7028,
      "Ġevalu": 7029,
      "ĠBible": 7030,
      "ĠEve": 7031,
      "ĠPol": 7032,
      "ĠDel": 7033,
      "Ġcommod": 7034,
      "ĠItaly": 7035,
      "Ġeleg": 7036,
      "Ġlighting": 7037,
      "Ġbias": 7038,
      "irds": 7039,
      "Ġcapita": 7040,
      "Ġadding": 7041,
      "Ġgranted": 7042,
      "Ġstops": 7043,
      "viously": 7044,
      "Ġspeaker": 7045,
      "Ġ120": 7046,
      "Ġconsume": 7047,
      "Ġinspire": 7048,
      "Ġterrorists": 7049,
      "Ġcatastroph": 7050,
      "Ġcrucial": 7051,
      "ĠWhite": 7052,
      "Ġcrops": 7053,
      "ĠGrand": 7054,
      "Ġpilot": 7055,
      "Ġpasswords": 7056,
      "Ġdiagram": 7057,
      "Ġdatabase": 7058,
      "Ġathlet": 7059,
      "Four": 7060,
      "Int": 7061,
      "tocin": 7062,
      "Ġtrop": 7063,
      "Ġwaters": 7064,
      "Ġhier": 7065,
      "anz": 7066,
      "ester": 7067,
      "Ġgro": 7068,
      "ione": 7069,
      "section": 7070,
      "sth": 7071,
      "inder": 7072,
      "Ġoutput": 7073,
      "ĠCount": 7074,
      "oded": 7075,
      "Ġtwe": 7076,
      "Ġdisrupt": 7077,
      "ĠHy": 7078,
      "phor": 7079,
      "Ġemphas": 7080,
      "Ġgenoc": 7081,
      "Ġgenius": 7082,
      "Ġstrangers": 7083,
      "Ġrecru": 7084,
      "Ġfarmer": 7085,
      "Ġearn": 7086,
      "Ġcapability": 7087,
      "Ġpassing": 7088,
      "arents": 7089,
      "Ġmusicians": 7090,
      "def": 7091,
      "Everyone": 7092,
      "Ġdelivered": 7093,
      "Ġdepressed": 7094,
      "Ġposter": 7095,
      "Ġsuggesting": 7096,
      "Ġtextbook": 7097,
      "Ġvacu": 7098,
      "Ġannounced": 7099,
      "Ġaffordable": 7100,
      "Ġcalculate": 7101,
      "Ġethical": 7102,
      "Ġdemonstrate": 7103,
      "Ġjournalist": 7104,
      "Ġsmoking": 7105,
      "ĠFlor": 7106,
      "Ġintuitive": 7107,
      "Ġisolated": 7108,
      "Ġchimpanzees": 7109,
      "American": 7110,
      "Ġspectacular": 7111,
      "ĠOxford": 7112,
      "ĠUganda": 7113,
      "Narrator": 7114,
      "aj": 7115,
      "bits": 7116,
      "dam": 7117,
      "rit": 7118,
      "west": 7119,
      "Ġx": 7120,
      "Ġaer": 7121,
      "Ġwing": 7122,
      "Ġcab": 7123,
      "Ġpile": 7124,
      "Ġpandem": 7125,
      "alian": 7126,
      "Ġnets": 7127,
      "Ġneat": 7128,
      "Ġneural": 7129,
      "Ġchief": 7130,
      "Ġpeer": 7131,
      "ideo": 7132,
      "Ġupset": 7133,
      "emen": 7134,
      "izoph": 7135,
      "ĠMac": 7136,
      "Ġhappier": 7137,
      "Ġclim": 7138,
      "ĠEastern": 7139,
      "iac": 7140,
      "ĠLad": 7141,
      "Ġrelax": 7142,
      "Ġmonit": 7143,
      "Ġedges": 7144,
      "Ġaccidents": 7145,
      "Ġelections": 7146,
      "Ġdistrict": 7147,
      "Ġtreatments": 7148,
      "Ġdrawn": 7149,
      "Ġspeakers": 7150,
      "Ġbreakthrough": 7151,
      "Ġextrem": 7152,
      "Ġorigami": 7153,
      "Ġpulling": 7154,
      "Ġinspiring": 7155,
      "Ġdegrad": 7156,
      "Ġcircles": 7157,
      "Ġparticipants": 7158,
      "Ġintegrated": 7159,
      "Ġtuna": 7160,
      "Ġcategory": 7161,
      "ĠWilliam": 7162,
      "ĠSmith": 7163,
      "Ġshrimp": 7164,
      "Ġuncomfortable": 7165,
      "Ġricher": 7166,
      "200": 7167,
      "Number": 7168,
      "Us": 7169,
      "fess": 7170,
      "pen": 7171,
      "rid": 7172,
      "Ġwid": 7173,
      "isphere": 7174,
      "Ġbars": 7175,
      "Ġink": 7176,
      "omb": 7177,
      "Ġanthrop": 7178,
      "Ġdozens": 7179,
      "Ġsoap": 7180,
      "Ġchrom": 7181,
      "Ġspr": 7182,
      "osal": 7183,
      "osure": 7184,
      "ĠSil": 7185,
      "ogether": 7186,
      "Ġperpet": 7187,
      "Ġquit": 7188,
      "Ġmanif": 7189,
      "aches": 7190,
      "Ġunh": 7191,
      "Ġparties": 7192,
      "Ġsheet": 7193,
      "cohol": 7194,
      "Ġemerge": 7195,
      "Ġtraject": 7196,
      "uba": 7197,
      "Ġhelicop": 7198,
      "Ġbask": 7199,
      "Ġconsult": 7200,
      "Ġbiologists": 7201,
      "Ġregret": 7202,
      "Ġdisturb": 7203,
      "Ġdefense": 7204,
      "mingly": 7205,
      "Ġvariation": 7206,
      "Ġveter": 7207,
      "Ġprotecting": 7208,
      "Ġpredictions": 7209,
      "Nothing": 7210,
      "Ġorigin": 7211,
      "Ġphotography": 7212,
      "Ġreduced": 7213,
      "Ġincludes": 7214,
      "Ġcharacteristics": 7215,
      "Ġdependent": 7216,
      "Ġseparated": 7217,
      "Ġdebt": 7218,
      "Ġbanks": 7219,
      "Ġtricks": 7220,
      "Ġconclude": 7221,
      "Ġdynamics": 7222,
      "Ġagricultural": 7223,
      "ĠBlack": 7224,
      "Ġchapter": 7225,
      "ĠCambr": 7226,
      "Ġridiculous": 7227,
      "heimer": 7228,
      "Ġlungs": 7229,
      "Ġreputation": 7230,
      "Five": 7231,
      "bra": 7232,
      "fold": 7233,
      "oor": 7234,
      "onds": 7235,
      "Ġaesth": 7236,
      "Ġsession": 7237,
      "enger": 7238,
      "Ġpicking": 7239,
      "ĠIce": 7240,
      "utical": 7241,
      "lyn": 7242,
      "che": 7243,
      "opher": 7244,
      "amine": 7245,
      "Ġjelly": 7246,
      "ested": 7247,
      "Ġspark": 7248,
      "Ġspots": 7249,
      "ĠMark": 7250,
      "Ġagencies": 7251,
      "ĠDemoc": 7252,
      "Ġblame": 7253,
      "Ġrail": 7254,
      "Ġintervention": 7255,
      "Ġlaid": 7256,
      "ĠVir": 7257,
      "Ġsettle": 7258,
      "Ġphotographer": 7259,
      "Ġpainted": 7260,
      "Ġidentified": 7261,
      "Ġobserv": 7262,
      "Ġimpacts": 7263,
      "ĠSea": 7264,
      "Ġfuels": 7265,
      "Ġreports": 7266,
      "Ġimprovement": 7267,
      "Ġreturned": 7268,
      "Ġdetermined": 7269,
      "Ġphysicist": 7270,
      "Ġintegr": 7271,
      "Ġconsequence": 7272,
      "Ġtribes": 7273,
      "Ġecosystems": 7274,
      "Ġteenagers": 7275,
      "Ġunlikely": 7276,
      "Ġsynthetic": 7277,
      "Ġbriefly": 7278,
      "Ġfederal": 7279,
      "Ġprosper": 7280,
      "Indeed": 7281,
      "Ġrevenue": 7282,
      "Ġdictionary": 7283,
      "Ġanxiety": 7284,
      "Ġignorance": 7285,
      "ĠSoviet": 7286,
      "ĠFlorida": 7287,
      "Tr": 7288,
      "bul": 7289,
      "ober": 7290,
      "Ġtied": 7291,
      "atom": 7292,
      "Ġmate": 7293,
      "onic": 7294,
      "Ġgh": 7295,
      "Ġstores": 7296,
      "Ġkiss": 7297,
      "Ġknee": 7298,
      "Whether": 7299,
      "ĠCA": 7300,
      "oding": 7301,
      "aceutical": 7302,
      "Ġcliff": 7303,
      "Ġunpre": 7304,
      "Ġdisag": 7305,
      "ĠPole": 7306,
      "Ġadap": 7307,
      "obs": 7308,
      "Ġincident": 7309,
      "ĠOcean": 7310,
      "Ġapple": 7311,
      "Ġschizoph": 7312,
      "Ġenth": 7313,
      "Ġ195": 7314,
      "Ġstrip": 7315,
      "Ġsmallpox": 7316,
      "Ġopens": 7317,
      "ribly": 7318,
      "Ġ2006": 7319,
      "Ġglobalization": 7320,
      "Ġrobust": 7321,
      "Ġlanded": 7322,
      "Ġexperimental": 7323,
      "Ġdigit": 7324,
      "Ġoriginally": 7325,
      "Ġsouthern": 7326,
      "Ġreminded": 7327,
      "Ġcryst": 7328,
      "Ġdimension": 7329,
      "ĠAdam": 7330,
      "Ġrecover": 7331,
      "Ġrepeated": 7332,
      "Ġtrucks": 7333,
      "Ġwheelch": 7334,
      "Ġconstructed": 7335,
      "Ġbranch": 7336,
      "Ġbathroom": 7337,
      "iatric": 7338,
      "Ġwelcome": 7339,
      "BC": 7340,
      "God": 7341,
      "Tw": 7342,
      "but": 7343,
      "ek": 7344,
      "mod": 7345,
      "rich": 7346,
      "zheimer": 7347,
      "Ġthrew": 7348,
      "Ġwise": 7349,
      "atts": 7350,
      "erving": 7351,
      "Ġmall": 7352,
      "Ġhanging": 7353,
      "Ġfiber": 7354,
      "Ġinches": 7355,
      "Ġlon": 7356,
      "Ġlux": 7357,
      "Ġnaked": 7358,
      "Ġbeet": 7359,
      "Ġrent": 7360,
      "ctober": 7361,
      "raw": 7362,
      "Ġdoors": 7363,
      "Ġproof": 7364,
      "capes": 7365,
      "isted": 7366,
      "Ġalcohol": 7367,
      "Ġactor": 7368,
      "ĠMand": 7369,
      "ĠMary": 7370,
      "ĠBay": 7371,
      "ĠBur": 7372,
      "Ġagency": 7373,
      "Ġclients": 7374,
      "ĠNet": 7375,
      "Ġunderlying": 7376,
      "Ġadoles": 7377,
      "icks": 7378,
      "obile": 7379,
      "Ġbrib": 7380,
      "ĠOn": 7381,
      "Ġsimult": 7382,
      "Ġbio": 7383,
      "Ġcaps": 7384,
      "ĠVen": 7385,
      "ughters": 7386,
      "ĠTEDTalk": 7387,
      "Ġpositions": 7388,
      "Ġsensory": 7389,
      "Ġsentences": 7390,
      "Ġpredicted": 7391,
      "Ġfacility": 7392,
      "Ġcopyright": 7393,
      "Ġbrave": 7394,
      "Ġultra": 7395,
      "Ġnucle": 7396,
      "Ġprimarily": 7397,
      "Ġcrossing": 7398,
      "Ġcitizen": 7399,
      "Ġdiscoveries": 7400,
      "Ġassumptions": 7401,
      "Ġoxytocin": 7402,
      "fficient": 7403,
      "ĠPrize": 7404,
      "Ġrarely": 7405,
      "Ġinjury": 7406,
      "ĠGlobal": 7407,
      "ĠGeneral": 7408,
      "Ġchaos": 7409,
      "Ġnurses": 7410,
      "ĠDepartment": 7411,
      "ĠRwanda": 7412,
      "Ġglaci": 7413,
      "Ġpyramid": 7414,
      "Ġlinear": 7415,
      "Ġvacuum": 7416,
      "Af": 7417,
      "Get": 7418,
      "hal": 7419,
      "kin": 7420,
      "pond": 7421,
      "rome": 7422,
      "tical": 7423,
      "ya": 7424,
      "zero": 7425,
      "Ġthresh": 7426,
      "Ġwra": 7427,
      "Ġsle": 7428,
      "Ġsulf": 7429,
      "Ġpunch": 7430,
      "Ġfool": 7431,
      "Ġfract": 7432,
      "Ġfought": 7433,
      "Ġinherent": 7434,
      "icious": 7435,
      "Ġstom": 7436,
      "opard": 7437,
      "Ġspa": 7438,
      "ĠSing": 7439,
      "ĠSuper": 7440,
      "Ġcomprom": 7441,
      "ache": 7442,
      "ĠGand": 7443,
      "Ġarrow": 7444,
      "ĠRiver": 7445,
      "Ġcourt": 7446,
      "Ġcaring": 7447,
      "Ġdrivers": 7448,
      "Ġmode": 7449,
      "Ġartistic": 7450,
      "Ġfarming": 7451,
      "Ġregener": 7452,
      "Ġfiguring": 7453,
      "Ġ700": 7454,
      "attered": 7455,
      "Ġholds": 7456,
      "Ġgrandchildren": 7457,
      "Ġsticks": 7458,
      "Ġtargets": 7459,
      "Ġtranslated": 7460,
      "Ġpushed": 7461,
      "Ġsalt": 7462,
      "ĠSpace": 7463,
      "Ġexpanding": 7464,
      "Ġdinosaur": 7465,
      "Ġhackers": 7466,
      "Ġshopping": 7467,
      "Ġreveal": 7468,
      "Ġshelter": 7469,
      "Ġextended": 7470,
      "Ġinevitable": 7471,
      "Ġbegun": 7472,
      "Ġbubbles": 7473,
      "Ġschizophren": 7474,
      "BI": 7475,
      "Life": 7476,
      "bru": 7477,
      "born": 7478,
      "iens": 7479,
      "lar": 7480,
      "makers": 7481,
      "Ġsits": 7482,
      "Ġhip": 7483,
      "onia": 7484,
      "aran": 7485,
      "Ġgases": 7486,
      "urse": 7487,
      "opy": 7488,
      "Ġmeal": 7489,
      "Ġchairs": 7490,
      "cap": 7491,
      "iel": 7492,
      "ĠSim": 7493,
      "ĠSyr": 7494,
      "elf": 7495,
      "Ġsacred": 7496,
      "mented": 7497,
      "izar": 7498,
      "Ġpermission": 7499,
      "Ġexped": 7500,
      "Ġclar": 7501,
      "Ġ28": 7502,
      "ĠHollywood": 7503,
      "Ġreson": 7504,
      "eller": 7505,
      "ĠRio": 7506,
      "ĠWall": 7507,
      "Ġinvolve": 7508,
      "Ġowner": 7509,
      "Ġscores": 7510,
      "Ġattitude": 7511,
      "gging": 7512,
      "Ġanswered": 7513,
      "Ġobjective": 7514,
      "Ġfocusing": 7515,
      "ĠAlzheimer": 7516,
      "Ġobservation": 7517,
      "ĠBeij": 7518,
      "Ġvolcan": 7519,
      "Ġemerged": 7520,
      "Ġprimitive": 7521,
      "Ġpupp": 7522,
      "Ġthrowing": 7523,
      "Ġburst": 7524,
      "Ġpanels": 7525,
      "ĠCarol": 7526,
      "ĠQue": 7527,
      "ĠArabic": 7528,
      "market": 7529,
      "Ġfrequency": 7530,
      "Really": 7531,
      "Ġconsistent": 7532,
      "ĠSaturn": 7533,
      "ĠMartin": 7534,
      "ĠAntar": 7535,
      "Ġelderly": 7536,
      "Ġgonna": 7537,
      "Ġchromos": 7538,
      "PM": 7539,
      "auc": 7540,
      "free": 7541,
      "half": 7542,
      "liam": 7543,
      "ocent": 7544,
      "riger": 7545,
      "Ġsink": 7546,
      "Ġsisters": 7547,
      "erd": 7548,
      "err": 7549,
      "itudes": 7550,
      "ena": 7551,
      "Ġhill": 7552,
      "arl": 7553,
      "ali": 7554,
      "owing": 7555,
      "Ġabilities": 7556,
      "illa": 7557,
      "Ġsharp": 7558,
      "ulum": 7559,
      "Ġrice": 7560,
      "Ġdear": 7561,
      "Ġsav": 7562,
      "apor": 7563,
      "ĠBob": 7564,
      "Ġpartly": 7565,
      "Ġacid": 7566,
      "Ġflour": 7567,
      "athered": 7568,
      "Ġsmarter": 7569,
      "ĠJeff": 7570,
      "ĠOctober": 7571,
      "Ġwriters": 7572,
      "Ġhelpful": 7573,
      "Ġhighlight": 7574,
      "Ġimagery": 7575,
      "Ġserved": 7576,
      "Ġstunt": 7577,
      "Ġsubtle": 7578,
      "Ġregime": 7579,
      "Ġconfident": 7580,
      "Ġmagical": 7581,
      "Ġmeasures": 7582,
      "Ġdifficulty": 7583,
      "Ġsensor": 7584,
      "ovember": 7585,
      "Ġoperations": 7586,
      "gency": 7587,
      "Ġsuggested": 7588,
      "Ġpromote": 7589,
      "Ġproposed": 7590,
      "Ġarray": 7591,
      "Ġsleeping": 7592,
      "Ġbarrel": 7593,
      "Ġparticipation": 7594,
      "Ġgraphic": 7595,
      "Ġdisappoint": 7596,
      "Ġcollaborative": 7597,
      "Ġphilanthrop": 7598,
      "Ġdocuments": 7599,
      "Ġdiagnosed": 7600,
      "Ġsatellites": 7601,
      "Ġpursue": 7602,
      "Ġflexible": 7603,
      "ĠCEO": 7604,
      "Ġforgotten": 7605,
      "Ġensure": 7606,
      "Ġautonomous": 7607,
      "Ġresilience": 7608,
      "Ġmysterious": 7609,
      "ĠEthiopia": 7610,
      "Ġexpansion": 7611,
      "ĠVirgin": 7612,
      "\"]": 7613,
      "DA": 7614,
      "EC": 7615,
      "ET": 7616,
      "En": 7617,
      "Qu": 7618,
      "eep": 7619,
      "Ġtear": 7620,
      "atural": 7621,
      "erable": 7622,
      "Ġcas": 7623,
      "Ġcott": 7624,
      "Ġmur": 7625,
      "Ġhitting": 7626,
      "Ġpione": 7627,
      "arry": 7628,
      "Ġwhis": 7629,
      "othing": 7630,
      "Ġwhatso": 7631,
      "Ġhey": 7632,
      "Ġprosth": 7633,
      "eart": 7634,
      "Ġplain": 7635,
      "Ġplug": 7636,
      "izer": 7637,
      "ĠMRI": 7638,
      "udi": 7639,
      "ĠBon": 7640,
      "Ġneedle": 7641,
      "Ġbucks": 7642,
      "ĠDere": 7643,
      "Ġroots": 7644,
      "ĠLab": 7645,
      "ĠWal": 7646,
      "ĠJim": 7647,
      "Ġtransm": 7648,
      "ĠStar": 7649,
      "Ġelite": 7650,
      "Ġopenness": 7651,
      "Ġcurren": 7652,
      "Ġdefe": 7653,
      "Ġ2003": 7654,
      "Ġrefriger": 7655,
      "inson": 7656,
      "Ġassess": 7657,
      "Ġprogramming": 7658,
      "Ġaudio": 7659,
      "Ġradically": 7660,
      "Ġfailing": 7661,
      "Ġsupported": 7662,
      "Ġjoint": 7663,
      "Ġkeyboard": 7664,
      "Ġphotographed": 7665,
      "Ġimmense": 7666,
      "Ġimmediate": 7667,
      "Ġburied": 7668,
      "Ġstruggling": 7669,
      "Ġvictim": 7670,
      "Ġbaseball": 7671,
      "Ġliberal": 7672,
      "Ġadditional": 7673,
      "Ġanalyze": 7674,
      "Ġskept": 7675,
      "Ġenterpr": 7676,
      "Ġtribe": 7677,
      "atrix": 7678,
      "Ġmillenn": 7679,
      "Ġelephants": 7680,
      "Ġgathering": 7681,
      "Ġdialogue": 7682,
      "Ġcolonies": 7683,
      "Ġmerely": 7684,
      "Ġastonishing": 7685,
      "Ġbiodiversity": 7686,
      "izarre": 7687,
      "Ġwhatsoever": 7688,
      "18": 7689,
      "Great": 7690,
      "low": 7691,
      "mates": 7692,
      "worth": 7693,
      "Ġtone": 7694,
      "Ġtheore": 7695,
      "Ġsilly": 7696,
      "itous": 7697,
      "Ġmood": 7698,
      "oning": 7699,
      "Ġduck": 7700,
      "ora": 7701,
      "oran": 7702,
      "orpor": 7703,
      "Ġlamp": 7704,
      "Ġgee": 7705,
      "ala": 7706,
      "Ġham": 7707,
      "oli": 7708,
      "Ġchron": 7709,
      "Ġconvert": 7710,
      "unction": 7711,
      "ĠSund": 7712,
      "Ġleverage": 7713,
      "Ġagent": 7714,
      "ĠGates": 7715,
      "ĠPan": 7716,
      "iban": 7717,
      "ĠTitan": 7718,
      "Ġphos": 7719,
      "ĠFin": 7720,
      "ĠFirst": 7721,
      "Ġflows": 7722,
      "arsh": 7723,
      "Ġending": 7724,
      "Ġfounded": 7725,
      "Ġcompleted": 7726,
      "Ġinterestingly": 7727,
      "Ġgrat": 7728,
      "Ġselfish": 7729,
      "Ġcraft": 7730,
      "Ġ95": 7731,
      "Ġsuccessfully": 7732,
      "Ġexpectancy": 7733,
      "Ġshaped": 7734,
      "ĠBrown": 7735,
      "Ġdaughters": 7736,
      "Ġdeliber": 7737,
      "Ġexplaining": 7738,
      "Ġindustries": 7739,
      "Ġarrive": 7740,
      "Ġsoldier": 7741,
      "Ġexception": 7742,
      "Ġdomain": 7743,
      "Ġfraction": 7744,
      "Ġdemonstration": 7745,
      "Ġshocked": 7746,
      "ĠRussian": 7747,
      "Ġclimbing": 7748,
      "Ġroutine": 7749,
      "Ġfabulous": 7750,
      "esthes": 7751,
      "Ġdolphin": 7752,
      "Ġrefugees": 7753,
      "Ġlawyer": 7754,
      "Ġslavery": 7755,
      "semble": 7756,
      "Ġinstructions": 7757,
      "Ġgenocide": 7758,
      "ĠCambridge": 7759,
      "Ġwheelchair": 7760,
      "bruary": 7761,
      "liament": 7762,
      "fe": 7763,
      "sc": 7764,
      "yard": 7765,
      "Ġaqu": 7766,
      "Ġwider": 7767,
      "erb": 7768,
      "Ġcig": 7769,
      "Ġcable": 7770,
      "Ġcert": 7771,
      "Ġcats": 7772,
      "Ġbizarre": 7773,
      "enly": 7774,
      "eday": 7775,
      "Ġlit": 7776,
      "ĠInt": 7777,
      "Ġstab": 7778,
      "ifice": 7779,
      "Ġwashing": 7780,
      "Ġbutt": 7781,
      "Ġtech": 7782,
      "ela": 7783,
      "Ġcompos": 7784,
      "ĠMor": 7785,
      "agos": 7786,
      "Ġdescription": 7787,
      "interest": 7788,
      "Ġowned": 7789,
      "conf": 7790,
      "Ġcapabilities": 7791,
      "Ġpubl": 7792,
      "Ġwarning": 7793,
      "Ġconfused": 7794,
      "Ġcurric": 7795,
      "Ġ2001": 7796,
      "Ġcraw": 7797,
      "Ġfunded": 7798,
      "Ġinvested": 7799,
      "Ġsurviv": 7800,
      "Ġstrongly": 7801,
      "Ġarchitectural": 7802,
      "engine": 7803,
      "Ġsuffered": 7804,
      "Ġrepresentation": 7805,
      "Ġtranslation": 7806,
      "Ġmethane": 7807,
      "Ġprepare": 7808,
      "Ġsurprisingly": 7809,
      "Ġskelet": 7810,
      "Ġskeleton": 7811,
      "copes": 7812,
      "Ġinformed": 7813,
      "Ġtort": 7814,
      "Ġrefugee": 7815,
      "ĠGreek": 7816,
      "Ġperceive": 7817,
      "Ġintrig": 7818,
      "Ġhypothesis": 7819,
      "oosing": 7820,
      "Ġaccomplish": 7821,
      "embered": 7822,
      "Ġcorrespond": 7823,
      "Ġproportion": 7824,
      "Ġunbelievable": 7825,
      "Obviously": 7826,
      "Ġmanifest": 7827,
      "Ġbasket": 7828,
      "LA": 7829,
      "Ph": 7830,
      "parents": 7831,
      "sp": 7832,
      "uity": 7833,
      "ville": 7834,
      "Ġtong": 7835,
      "Ġain": 7836,
      "encing": 7837,
      "Ġdim": 7838,
      "eda": 7839,
      "ason": 7840,
      "ician": 7841,
      "Ġnerve": 7842,
      "Ġnurse": 7843,
      "Ġbears": 7844,
      "sey": 7845,
      "stage": 7846,
      "road": 7847,
      "Ġstake": 7848,
      "cember": 7849,
      "Ġub": 7850,
      "Ġsew": 7851,
      "Ġcham": 7852,
      "Ġchoosing": 7853,
      "Ġrivers": 7854,
      "Ġdecent": 7855,
      "umes": 7856,
      "istically": 7857,
      "Ġtrash": 7858,
      "mental": 7859,
      "aby": 7860,
      "ĠBron": 7861,
      "ĠLED": 7862,
      "play": 7863,
      "Ġsimulation": 7864,
      "Ġentering": 7865,
      "Ġstranger": 7866,
      "aze": 7867,
      "Ġcorrel": 7868,
      "Ġhomework": 7869,
      "Ġelected": 7870,
      "Ġweeke": 7871,
      "Ġeducated": 7872,
      "Ġcheese": 7873,
      "Ġadvoc": 7874,
      "Ġ85": 7875,
      "Ġ800": 7876,
      "ĠArch": 7877,
      "ĠArctic": 7878,
      "Ġbreaks": 7879,
      "Ġtempt": 7880,
      "Ġleaf": 7881,
      "Ġthreats": 7882,
      "ĠDecember": 7883,
      "Ġcartoons": 7884,
      "Ġinfection": 7885,
      "ĠIslands": 7886,
      "Ġtunnel": 7887,
      "Ġmixed": 7888,
      "Ġgolden": 7889,
      "Ġattractive": 7890,
      "Ġtumors": 7891,
      "ĠNorway": 7892,
      "Ġsynthes": 7893,
      "Ġfragile": 7894,
      "Ġadopted": 7895,
      "Ġgarage": 7896,
      "Ġnutrition": 7897,
      "Ġneurolog": 7898,
      "Ġfortunate": 7899,
      "Ġlawyers": 7900,
      "Ġmiracle": 7901,
      "Ġhemisphere": 7902,
      "Ġpharmaceutical": 7903,
      "Ġstroke": 7904,
      "Ġuncertainty": 7905,
      "fessor": 7906,
      "BM": 7907,
      "Back": 7908,
      "Turn": 7909,
      "Will": 7910,
      "friend": 7911,
      "hop": 7912,
      "sun": 7913,
      "viol": 7914,
      "working": 7915,
      "yal": 7916,
      "Ġwired": 7917,
      "ati": 7918,
      "Ġboo": 7919,
      "Ġbored": 7920,
      "enh": 7921,
      "Ġdumb": 7922,
      "stone": 7923,
      "Ġshout": 7924,
      "Ġships": 7925,
      "Ġneck": 7926,
      "ilize": 7927,
      "Ġrats": 7928,
      "Ġorph": 7929,
      "umble": 7930,
      "atever": 7931,
      "ĠAh": 7932,
      "ĠCoun": 7933,
      "Ġcompelling": 7934,
      "Ġsuck": 7935,
      "ĠDet": 7936,
      "rained": 7937,
      "otherap": 7938,
      "Ġrealizing": 7939,
      "pled": 7940,
      "Ġbrut": 7941,
      "Ġgenetically": 7942,
      "Ġpersist": 7943,
      "Ġremembered": 7944,
      "Ġdistingu": 7945,
      "Ġmembr": 7946,
      "Ġrestore": 7947,
      "Ġrestrict": 7948,
      "Ġkiller": 7949,
      "clock": 7950,
      "Ġexpecting": 7951,
      "Ġsquee": 7952,
      "Ġfastest": 7953,
      "Ġcompetitive": 7954,
      "Ġaffects": 7955,
      "Ġexperiencing": 7956,
      "Ġclosing": 7957,
      "Ġterrorist": 7958,
      "Ġmagnitude": 7959,
      "Ġauthorities": 7960,
      "Ġjudgment": 7961,
      "Ġphysician": 7962,
      "Ġmicrobial": 7963,
      "Ġgradually": 7964,
      "Ġintuition": 7965,
      "Ġreplicate": 7966,
      "Ġadventure": 7967,
      "Ġtackle": 7968,
      "ĠTaliban": 7969,
      "Ġparalyzed": 7970,
      "ĠBeijing": 7971,
      "Me": 7972,
      "Never": 7973,
      "Video": 7974,
      "].": 7975,
      "flies": 7976,
      "gence": 7977,
      "kins": 7978,
      "maker": 7979,
      "run": 7980,
      "sch": 7981,
      "Ġsin": 7982,
      "Ġcous": 7983,
      "Ġtooth": 7984,
      "Ġpale": 7985,
      "owers": 7986,
      "Through": 7987,
      "urable": 7988,
      "Ġshots": 7989,
      "Ġchances": 7990,
      "Ġcong": 7991,
      "Ġspray": 7992,
      "Ġupd": 7993,
      "ĠSpan": 7994,
      "Ġenables": 7995,
      "ĠMiss": 7996,
      "Ġleather": 7997,
      "aching": 7998,
      "Ġunable": 7999,
      "ĠGore": 8000,
      "Ġpride": 8001,
      "Ġdism": 8002,
      "ĠPeter": 8003,
      "angible": 8004,
      "Ġdeserve": 8005,
      "ĠLib": 8006,
      "ĠWith": 8007,
      "Ġremaining": 8008,
      "ĠChurch": 8009,
      "Ġschem": 8010,
      "Ġtranscend": 8011,
      "ostic": 8012,
      "Ġimaging": 8013,
      "Ġarticles": 8014,
      "Ġmining": 8015,
      "Ġfoods": 8016,
      "Ġheaded": 8017,
      "Ġdemands": 8018,
      "Ġcake": 8019,
      "Ġaddict": 8020,
      "Ġcharges": 8021,
      "Ġinnocent": 8022,
      "Ġoccurs": 8023,
      "Ġimproved": 8024,
      "Ġtraditions": 8025,
      "Ġstaying": 8026,
      "Ġwinning": 8027,
      "Ġbeneath": 8028,
      "ugust": 8029,
      "Ġincluded": 8030,
      "Ġjumped": 8031,
      "Ġcovering": 8032,
      "yrus": 8033,
      "ĠQu": 8034,
      "Ġprofoundly": 8035,
      "Ġfortune": 8036,
      "Ġhomeless": 8037,
      "Ġwidely": 8038,
      "Ġinstitutional": 8039,
      "Ġinitially": 8040,
      "Ġnegoti": 8041,
      "Ġprofessionals": 8042,
      "Ġbesides": 8043,
      "Ġexponential": 8044,
      "Ġsenior": 8045,
      "Ġtrajectory": 8046,
      "Ġenthus": 8047,
      "Ġthreshold": 8048,
      "ĠDerek": 8049,
      "BF": 8050,
      "Hi": 8051,
      "Next": 8052,
      "Sah": 8053,
      "bar": 8054,
      "des": 8055,
      "four": 8056,
      "field": 8057,
      "gu": 8058,
      "iogen": 8059,
      "kind": 8060,
      "lim": 8061,
      "nes": 8062,
      "ship": 8063,
      "xual": 8064,
      "ĠThen": 8065,
      "Ġah": 8066,
      "Ġpairs": 8067,
      "Ġdan": 8068,
      "Ġdile": 8069,
      "Ġlap": 8070,
      "Ġgaps": 8071,
      "icient": 8072,
      "Ġnurt": 8073,
      "ctu": 8074,
      "allow": 8075,
      "opath": 8076,
      "oples": 8077,
      "ading": 8078,
      "adays": 8079,
      "Ġcomments": 8080,
      "Ġshore": 8081,
      "Ġchips": 8082,
      "Ġrh": 8083,
      "Ġpeoples": 8084,
      "Ġalph": 8085,
      "Ġspont": 8086,
      "ĠSou": 8087,
      "active": 8088,
      "ĠMah": 8089,
      "Ġlean": 8090,
      "ague": 8091,
      "Ġbug": 8092,
      "anged": 8093,
      "ounding": 8094,
      "ĠLou": 8095,
      "ĠLike": 8096,
      "ĠFre": 8097,
      "ĠJo": 8098,
      "Ġdrone": 8099,
      "Ġmetric": 8100,
      "cedented": 8101,
      "Ġpreserve": 8102,
      "Ġdistort": 8103,
      "Ġvalid": 8104,
      "otted": 8105,
      "Ġmusician": 8106,
      "Ġsecrets": 8107,
      "iences": 8108,
      "Ġdeli": 8109,
      "Ġsurvived": 8110,
      "Ġapproaches": 8111,
      "Ġcivic": 8112,
      "Ġobserve": 8113,
      "Ġfootage": 8114,
      "Ġmarry": 8115,
      "Ġsteal": 8116,
      "Ġfacilities": 8117,
      "Ġprinter": 8118,
      "Ġerrors": 8119,
      "Ġtracks": 8120,
      "Ġreactions": 8121,
      "Ġtendency": 8122,
      "Ġdetailed": 8123,
      "Ġassumption": 8124,
      "Ġinfluenced": 8125,
      "Ġburned": 8126,
      "Ġphysicists": 8127,
      "Ġvulnerability": 8128,
      "edding": 8129,
      "ĠMinister": 8130,
      "Ġsubstance": 8131,
      "Ġgods": 8132,
      "Ġqualities": 8133,
      "ĠFebruary": 8134,
      "Ġscenario": 8135,
      "Ġshrink": 8136,
      "Ġpandemic": 8137,
      "Ġcurriculum": 8138,
      "ĠBronx": 8139,
      "Give": 8140,
      "Girl": 8141,
      "Spe": 8142,
      "aa": 8143,
      "Ġtsun": 8144,
      "inarily": 8145,
      "eries": 8146,
      "Ġcub": 8147,
      "Ġdow": 8148,
      "Ġlone": 8149,
      "Ġgathered": 8150,
      "Ġnom": 8151,
      "Ġrehab": 8152,
      "erer": 8153,
      "ifer": 8154,
      "Ġdop": 8155,
      "aded": 8156,
      "olic": 8157,
      "Ġconvey": 8158,
      "Ġouter": 8159,
      "Ġspons": 8160,
      "ĠAugust": 8161,
      "ĠSquare": 8162,
      "employ": 8163,
      "Ġengin": 8164,
      "ares": 8165,
      "agen": 8166,
      "Ġclothing": 8167,
      "Ġuniform": 8168,
      "ĠDis": 8169,
      "ĠLong": 8170,
      "irect": 8171,
      "Ġfactories": 8172,
      "Ġbrows": 8173,
      "ĠOs": 8174,
      "Ġasks": 8175,
      "Ġinstantly": 8176,
      "Ġforming": 8177,
      "Ġformal": 8178,
      "Ġdistract": 8179,
      "Ġsocially": 8180,
      "Ġwoke": 8181,
      "Ġprofile": 8182,
      "ropy": 8183,
      "Ġinvesting": 8184,
      "China": 8185,
      "Ġmindset": 8186,
      "Ġsignificantly": 8187,
      "Ġsoup": 8188,
      "Ġportion": 8189,
      "Ġoptimism": 8190,
      "Ġsusp": 8191,
      "Ġpigs": 8192,
      "Ġurge": 8193,
      "Ġfrog": 8194,
      "Ġinsights": 8195,
      "Ġodds": 8196,
      "Ġchannels": 8197,
      "Ġnutrients": 8198,
      "Ġaggreg": 8199,
      "Ġaggressive": 8200,
      "Ġfrustrated": 8201,
      "Ġsubstant": 8202,
      "Ġconducted": 8203,
      "Ġinterpretation": 8204,
      "Ġcomparison": 8205,
      "Ġqueen": 8206,
      "ĠTurkey": 8207,
      "ĠBrook": 8208,
      "Ġglamorous": 8209,
      "ĠJesus": 8210,
      "Ġunprecedented": 8211,
      "Ġsimultaneously": 8212,
      "Ġdilem": 8213,
      "Ġengines": 8214,
      "MT": 8215,
      "Tell": 8216,
      "bing": 8217,
      "fast": 8218,
      "press": 8219,
      "ini": 8220,
      "Ġwest": 8221,
      "isc": 8222,
      "isy": 8223,
      "Ġdies": 8224,
      "Ġdung": 8225,
      "Ġlions": 8226,
      "Ġbell": 8227,
      "see": 8228,
      "Ġanonymous": 8229,
      "estr": 8230,
      "quis": 8231,
      "Ġtends": 8232,
      "andering": 8233,
      "Ġtriv": 8234,
      "ĠMoo": 8235,
      "Ġexport": 8236,
      "Ġcoca": 8237,
      "ĠHigh": 8238,
      "Ġacoust": 8239,
      "ĠOk": 8240,
      "Ġindig": 8241,
      "Ġremained": 8242,
      "Ġcourses": 8243,
      "ails": 8244,
      "ĠKen": 8245,
      "Ġ33": 8246,
      "Ġlake": 8247,
      "Ġextension": 8248,
      "Ġserving": 8249,
      "Ġhealthier": 8250,
      "Ġsubway": 8251,
      "Ġdemographic": 8252,
      "Ġmorality": 8253,
      "Ġkills": 8254,
      "ending": 8255,
      "Ġstructural": 8256,
      "Ġbottles": 8257,
      "Ġexplains": 8258,
      "Ġimproving": 8259,
      "Ġcombat": 8260,
      "Ġmedication": 8261,
      "Ġlifes": 8262,
      "Ġarrange": 8263,
      "Ġflowing": 8264,
      "Ġaccounts": 8265,
      "Ġstrategic": 8266,
      "Ġwildlife": 8267,
      "Ġpurposes": 8268,
      "Ġrolling": 8269,
      "Ġwealthy": 8270,
      "Ġirre": 8271,
      "Ġhalluc": 8272,
      "Ġcruel": 8273,
      "Ġgentleman": 8274,
      "ĠNorthern": 8275,
      "Ġrestaurants": 8276,
      "Ġgarbage": 8277,
      "Ġexpertise": 8278,
      "Ġrubber": 8279,
      "Ġanalogy": 8280,
      "Ġtrigger": 8281,
      "Ġcontemporary": 8282,
      "looking": 8283,
      "Ġownership": 8284,
      "Ġobstacles": 8285,
      "Ġconservative": 8286,
      "quarters": 8287,
      "ĠHomo": 8288,
      "otherapy": 8289,
      "Ġdelivery": 8290,
      "40": 8291,
      "Dr": 8292,
      "EM": 8293,
      "],": 8294,
      "fram": 8295,
      "human": 8296,
      "lings": 8297,
      "produ": 8298,
      "uke": 8299,
      "atar": 8300,
      "itating": 8301,
      "ani": 8302,
      "angh": 8303,
      "Ġinhab": 8304,
      "Ġgear": 8305,
      "Ġgate": 8306,
      "asm": 8307,
      "ĠIm": 8308,
      "usiness": 8309,
      "Ġbend": 8310,
      "Ġrecept": 8311,
      "imal": 8312,
      "chron": 8313,
      "Ġshipping": 8314,
      "antom": 8315,
      "Ġsomeday": 8316,
      "Ġouts": 8317,
      "ĠSar": 8318,
      "ogram": 8319,
      "asty": 8320,
      "agon": 8321,
      "uded": 8322,
      "Ġimpression": 8323,
      "ĠHill": 8324,
      "Ġgotta": 8325,
      "ĠDutch": 8326,
      "Ġcontrad": 8327,
      "cost": 8328,
      "Ġprec": 8329,
      "athan": 8330,
      "ĠJoe": 8331,
      "rence": 8332,
      "Ġpointing": 8333,
      "Ġ36": 8334,
      "licit": 8335,
      "Ġinterrupt": 8336,
      "Ġdrones": 8337,
      "Ġcrick": 8338,
      "Ġproto": 8339,
      "Ġcamps": 8340,
      "Ġlocated": 8341,
      "Ġexcit": 8342,
      "Ġtrains": 8343,
      "Ġnonprofit": 8344,
      "Ġsupporting": 8345,
      "Ġfriendly": 8346,
      "Ġversions": 8347,
      "Ġfears": 8348,
      "Ġdrawings": 8349,
      "Ġfluores": 8350,
      "Ġcompassionate": 8351,
      "Within": 8352,
      "Ġfemales": 8353,
      "Ġthreatened": 8354,
      "Ġtroub": 8355,
      "Ġpanel": 8356,
      "Ġprinted": 8357,
      "Ġreminds": 8358,
      "ĠSpain": 8359,
      "Ġblogs": 8360,
      "Ġclassrooms": 8361,
      "ĠiPod": 8362,
      "Ġairplanes": 8363,
      "Ġcosmic": 8364,
      "Ġcategories": 8365,
      "Ġticket": 8366,
      "Ġestablished": 8367,
      "Ġhunting": 8368,
      "Afric": 8369,
      "Ġubiqu": 8370,
      "ĠCouncil": 8371,
      "Saharan": 8372,
      "ĠSouthern": 8373,
      "Le": 8374,
      "Woman": 8375,
      "aves": 8376,
      "kward": 8377,
      "you": 8378,
      "zee": 8379,
      "reens": 8380,
      "Ġmatrix": 8381,
      "Ġhors": 8382,
      "Ġfile": 8383,
      "arge": 8384,
      "omin": 8385,
      "Ġislands": 8386,
      "Ġongoing": 8387,
      "usted": 8388,
      "umin": 8389,
      "ective": 8390,
      "Ġintim": 8391,
      "Ġupside": 8392,
      "ĠCD": 8393,
      "Ġenerg": 8394,
      "ĠMarch": 8395,
      "ĠBu": 8396,
      "ipts": 8397,
      "Ġuncle": 8398,
      "ormal": 8399,
      "ĠHave": 8400,
      "Ġarmed": 8401,
      "asses": 8402,
      "Ġloves": 8403,
      "perform": 8404,
      "Ġcounting": 8405,
      "ords": 8406,
      "Ġgenu": 8407,
      "Ġgenetics": 8408,
      "Ġreliable": 8409,
      "Ġbelieves": 8410,
      "Ġentropy": 8411,
      "Ġplanes": 8412,
      "Ġextinction": 8413,
      "Ġcrew": 8414,
      "Ġcomputation": 8415,
      "otechnology": 8416,
      "Ġfung": 8417,
      "ĠIndians": 8418,
      "Ġconnects": 8419,
      "Ġbadly": 8420,
      "Ġsixth": 8421,
      "Ġnights": 8422,
      "Ġclassical": 8423,
      "Ġ[\"": 8424,
      "Ġredesign": 8425,
      "Ġperformed": 8426,
      "Ġreducing": 8427,
      "bye": 8428,
      "Ġclosest": 8429,
      "Ġawkward": 8430,
      "Ġpeaceful": 8431,
      "Ġpause": 8432,
      "Ġgraphics": 8433,
      "Ġdetection": 8434,
      "Ġdespair": 8435,
      "Ġsuspe": 8436,
      "Ġscanner": 8437,
      "Ġofficer": 8438,
      "Ġaltru": 8439,
      "Ġpoems": 8440,
      "Secondly": 8441,
      "Ġincentive": 8442,
      "ĠScott": 8443,
      "minute": 8444,
      ".'\"": 8445,
      "Ġinevit": 8446,
      "Ġdiscipline": 8447,
      "Ġrituals": 8448,
      "Ġexplosion": 8449,
      "Ġoccasionally": 8450,
      "ĠSaudi": 8451,
      "Ġcolumn": 8452,
      "Ġstereoty": 8453,
      "Ġexcellent": 8454,
      "Ġcigaret": 8455,
      "Ġtongue": 8456,
      "Ġdopamine": 8457,
      "Ġexcitement": 8458,
      "Put": 8459,
      "Pro": 8460,
      "RB": 8461,
      "RS": 8462,
      "made": 8463,
      "wind": 8464,
      "Ġtut": 8465,
      "Ġtie": 8466,
      "inter": 8467,
      "itative": 8468,
      "Ġbats": 8469,
      "Ġho": 8470,
      "Ġgam": 8471,
      "Ġnerd": 8472,
      "Ġbeating": 8473,
      "ctica": 8474,
      "Ġcanopy": 8475,
      "Ġash": 8476,
      "Ġcomedy": 8477,
      "Ġorient": 8478,
      "Ġdeck": 8479,
      "Ġupload": 8480,
      "ĠSom": 8481,
      "ĠMother": 8482,
      "Ġpercept": 8483,
      "Ġclay": 8484,
      "Ġclient": 8485,
      "Ġoverl": 8486,
      "Ġimpressive": 8487,
      "ĠHall": 8488,
      "ĠTes": 8489,
      "anges": 8490,
      "ĠDes": 8491,
      "Ġprecious": 8492,
      "Ġpreval": 8493,
      "Ġincom": 8494,
      "ĠOf": 8495,
      "neys": 8496,
      "rowing": 8497,
      "Ġtragic": 8498,
      "Ġgram": 8499,
      "Ġterribly": 8500,
      "Ġstrike": 8501,
      "Ġbush": 8502,
      "Ġsubt": 8503,
      "ĠVer": 8504,
      "Ġprofits": 8505,
      "Ġcontinents": 8506,
      "Ġcontinuing": 8507,
      "Ġdevil": 8508,
      "Ġinvestors": 8509,
      "apped": 8510,
      "Ġopera": 8511,
      "Ġlowest": 8512,
      "Ġgrandparents": 8513,
      "Ġrobotics": 8514,
      "Ġapproaching": 8515,
      "Ġnearby": 8516,
      "Ġharness": 8517,
      "Ġspreads": 8518,
      "ĠAsian": 8519,
      "Although": 8520,
      "puter": 8521,
      "Ġearliest": 8522,
      "Ġannual": 8523,
      "Ġmagnific": 8524,
      "Ġappearance": 8525,
      "Ġ2011": 8526,
      "Ġphenomena": 8527,
      "Ġpackage": 8528,
      "Ġstraightforward": 8529,
      "Ġcatching": 8530,
      "Ġglasses": 8531,
      "ĠLeon": 8532,
      "ĠOrgan": 8533,
      "Ġgraduated": 8534,
      "Ġapplying": 8535,
      "Ġtissues": 8536,
      "ĠBlue": 8537,
      "Ġjournalists": 8538,
      "Ġguns": 8539,
      "copic": 8540,
      "Ġcorporations": 8541,
      "Ġstimul": 8542,
      "Ġvegetables": 8543,
      "Ġreinvent": 8544,
      "Ġtower": 8545,
      "Ġreconstruct": 8546,
      "Ġshifting": 8547,
      "Ġfortunately": 8548,
      "Ġencouraged": 8549,
      "burgh": 8550,
      "Ġitems": 8551,
      "Ġsacrifice": 8552,
      "ĠDelhi": 8553,
      "phorus": 8554,
      "Ġluxury": 8555,
      "ĠSpanish": 8556,
      "Ġgenuine": 8557,
      "Gl": 8558,
      "KB": 8559,
      "None": 8560,
      "aid": 8561,
      "cro": 8562,
      "efficient": 8563,
      "hist": 8564,
      "Ġtune": 8565,
      "Ġtubes": 8566,
      "Ġwires": 8567,
      "Ġcath": 8568,
      "itage": 8569,
      "itated": 8570,
      "Ġbind": 8571,
      "Ġfits": 8572,
      "Ġfancy": 8573,
      "ania": 8574,
      "Ġdressed": 8575,
      "eds": 8576,
      "edge": 8577,
      "icial": 8578,
      "Ġrethink": 8579,
      "Ġstability": 8580,
      "ifully": 8581,
      "Ġange": 8582,
      "Ġneoc": 8583,
      "ilty": 8584,
      "Ġjew": 8585,
      "Ġexcess": 8586,
      "Ġprol": 8587,
      "umines": 8588,
      "Ġalb": 8589,
      "Ġalign": 8590,
      "Ġseemingly": 8591,
      "ĠAny": 8592,
      "Ġsauce": 8593,
      "astics": 8594,
      "ĠMag": 8595,
      "Ġmanagers": 8596,
      "udge": 8597,
      "ĠBas": 8598,
      "Ġunemploy": 8599,
      "Ġdisability": 8600,
      "ĠTel": 8601,
      "ĠTanz": 8602,
      "angered": 8603,
      "ĠDen": 8604,
      "Ġrose": 8605,
      "Ġloan": 8606,
      "Ġphantom": 8607,
      "Ġamate": 8608,
      "Ġtraits": 8609,
      "ava": 8610,
      "ĠItalian": 8611,
      "Ġgrav": 8612,
      "Ġdrown": 8613,
      "Ġ2050": 8614,
      "Ġfarms": 8615,
      "ĠYour": 8616,
      "ĠInter": 8617,
      "Ġsketch": 8618,
      "ĠVery": 8619,
      "Ġpassenger": 8620,
      "Ġsignature": 8621,
      "Ġresearcher": 8622,
      "ushed": 8623,
      "aneous": 8624,
      "Ġfreely": 8625,
      "Ġspeaks": 8626,
      "Ġrevol": 8627,
      "Ġtemporary": 8628,
      "Ġeaten": 8629,
      "Ġprediction": 8630,
      "Ġreligions": 8631,
      "eyn": 8632,
      "Ġcircuits": 8633,
      "Ġcompete": 8634,
      "Ġaffecting": 8635,
      "Ġpropose": 8636,
      "Ġpropag": 8637,
      "Without": 8638,
      "Ġecological": 8639,
      "Ġannoy": 8640,
      "Ġlandscapes": 8641,
      "Ġdamn": 8642,
      "Ġburden": 8643,
      "Ġachievement": 8644,
      "Ġethnic": 8645,
      "Ġinterviewed": 8646,
      "Ġbroadcast": 8647,
      "Ġnuts": 8648,
      "Ġalternatives": 8649,
      "Ġphilosopher": 8650,
      "Should": 8651,
      "ĠComm": 8652,
      "Ġparadox": 8653,
      "grade": 8654,
      "Ġteenager": 8655,
      "Ġpreviously": 8656,
      "uilding": 8657,
      "Ġperceived": 8658,
      "Ġchimpanzee": 8659,
      "Ġbranches": 8660,
      "Ġpedestr": 8661,
      "itzer": 8662,
      "ihad": 8663,
      "Ġnavigate": 8664,
      "Ġarrested": 8665,
      "Ġcollapsed": 8666,
      "ĠNGOs": 8667,
      "Ġscholars": 8668,
      "Ġmonitoring": 8669,
      "Ġcotton": 8670,
      "Ġcurrency": 8671,
      "esthesia": 8672,
      "Ġdownt": 8673,
      "anghai": 8674,
      "12": 8675,
      "New": 8676,
      "Ten": 8677,
      "away": 8678,
      "list": 8679,
      "mony": 8680,
      "ndrome": 8681,
      "Ġbin": 8682,
      "Ġhiding": 8683,
      "Ġdys": 8684,
      "Ġdating": 8685,
      "orage": 8686,
      "Ġinex": 8687,
      "lend": 8688,
      "Ġrecess": 8689,
      "Ġhabits": 8690,
      "Ġstatic": 8691,
      "amps": 8692,
      "Ġshirt": 8693,
      "ntil": 8694,
      "Ġyourselves": 8695,
      "ourt": 8696,
      "ĠCome": 8697,
      "ĠCamp": 8698,
      "Ġworkforce": 8699,
      "reating": 8700,
      "arest": 8701,
      "Ġmanager": 8702,
      "Ġ29": 8703,
      "Ġpockets": 8704,
      "ĠTas": 8705,
      "Ġrope": 8706,
      "Ġloving": 8707,
      "Ġresolve": 8708,
      "pless": 8709,
      "Ġcommission": 8710,
      "Ġoffices": 8711,
      "Ġoffering": 8712,
      "Ġrape": 8713,
      "Ġendangered": 8714,
      "ĠKoran": 8715,
      "Ġnumer": 8716,
      "Ġrecall": 8717,
      "Ġsmallest": 8718,
      "Ġhardest": 8719,
      "Ġeditor": 8720,
      "Ġgenerous": 8721,
      "Ġski": 8722,
      "ĠVan": 8723,
      "Ġcaves": 8724,
      "ĠIndones": 8725,
      "Ġdistances": 8726,
      "ashed": 8727,
      "Ġviral": 8728,
      "Ġcollectively": 8729,
      "elson": 8730,
      "Ġimprov": 8731,
      "Ġsafer": 8732,
      "evin": 8733,
      "Ġresponses": 8734,
      "Ġreplaced": 8735,
      "Whereas": 8736,
      "Ġcampus": 8737,
      "Ġtransforming": 8738,
      "Ġsynchron": 8739,
      "Ġdivor": 8740,
      "Ġ2012": 8741,
      "Ġprisoners": 8742,
      "ĠJohnson": 8743,
      "Ġhydro": 8744,
      "iberia": 8745,
      "Ġdiagnosis": 8746,
      "Ġcustomer": 8747,
      "Ġflags": 8748,
      "Ġratio": 8749,
      "Ġassignment": 8750,
      "controll": 8751,
      "Ġdragon": 8752,
      "Ġassistance": 8753,
      "Ġmakers": 8754,
      "Ġadministration": 8755,
      "Ġsubsid": 8756,
      "Ġdecrease": 8757,
      "Ġvagina": 8758,
      "Ġasteroid": 8759,
      "Ġprocedure": 8760,
      "Ġguarantee": 8761,
      "Ġfibers": 8762,
      "Ġjellyfish": 8763,
      "Ġstomach": 8764,
      "ĠAntarctica": 8765,
      "ĠSunday": 8766,
      "Ġtsunami": 8767,
      "OL": 8768,
      "Pre": 8769,
      "Same": 8770,
      "Six": 8771,
      "Voice": 8772,
      "dig": 8773,
      "lers": 8774,
      "Ġtatt": 8775,
      "ativity": 8776,
      "Ġcrop": 8777,
      "isons": 8778,
      "enry": 8779,
      "Ġhired": 8780,
      "Ġpatch": 8781,
      "Ġfusion": 8782,
      "Ġdiving": 8783,
      "Ġgained": 8784,
      "Ġstorage": 8785,
      "changing": 8786,
      "oln": 8787,
      "cip": 8788,
      "ĠSud": 8789,
      "ĠSystem": 8790,
      "izers": 8791,
      "Ġcoat": 8792,
      "ĠBo": 8793,
      "Ġagents": 8794,
      "Ġclue": 8795,
      "ĠHi": 8796,
      "ĠPart": 8797,
      "ĠTwo": 8798,
      "ĠDV": 8799,
      "Ġads": 8800,
      "ĠRay": 8801,
      "ĠFBI": 8802,
      "ĠJuly": 8803,
      "Ġbuilds": 8804,
      "weight": 8805,
      "Ġscrew": 8806,
      "Ġrelation": 8807,
      "hea": 8808,
      "Ġsciences": 8809,
      "Ġinsul": 8810,
      "Ġinterven": 8811,
      "Ġinterior": 8812,
      "Ġslime": 8813,
      "Ġslums": 8814,
      "Ġwarr": 8815,
      "Ġaddiction": 8816,
      "Ġpassive": 8817,
      "ĠNewton": 8818,
      "Ġlocom": 8819,
      "Ġterrifying": 8820,
      "ometown": 8821,
      "Ġwinds": 8822,
      "Ġaudiences": 8823,
      "Ġsensation": 8824,
      "Ġbreakfast": 8825,
      "Ġspecialized": 8826,
      "Ġencry": 8827,
      "Ġpredictable": 8828,
      "Ġcycles": 8829,
      "Ġstepped": 8830,
      "crim": 8831,
      "Ġsilver": 8832,
      "Ġestate": 8833,
      "Ġbedroom": 8834,
      "Ġfault": 8835,
      "Ġmobility": 8836,
      "Ġdiscovering": 8837,
      "Ġmiserable": 8838,
      "Ġignored": 8839,
      "Ġwheat": 8840,
      "Ġwheels": 8841,
      "Ġparks": 8842,
      "Ġteenage": 8843,
      "incoln": 8844,
      "Ġsucceeded": 8845,
      "Ġunconscious": 8846,
      "ĠNeander": 8847,
      "Ġencouraging": 8848,
      "Ġestimates": 8849,
      "ĠMoz": 8850,
      "Ġdesperately": 8851,
      "ĠAlexander": 8852,
      "Ġmathematicians": 8853,
      "Ġrhythm": 8854,
      "Ġtroops": 8855,
      "Ġhelicopter": 8856,
      "Ġschizophrenia": 8857,
      "Ġphosphorus": 8858,
      "ĠMoore": 8859,
      "Ġcocaine": 8860,
      "Ġubiquitous": 8861,
      "Boy": 8862,
      "Eight": 8863,
      "Hello": 8864,
      "Make": 8865,
      "Pr": 8866,
      "Part": 8867,
      "RN": 8868,
      "Sp": 8869,
      "ao": 8870,
      "col": 8871,
      "ege": 8872,
      "lades": 8873,
      "rance": 8874,
      "sized": 8875,
      "inth": 8876,
      "inery": 8877,
      "Ġwedding": 8878,
      "Ġbold": 8879,
      "Ġhal": 8880,
      "ona": 8881,
      "Ġtoes": 8882,
      "Ġpiz": 8883,
      "Ġdrought": 8884,
      "Ġles": 8885,
      "Ġnative": 8886,
      "uts": 8887,
      "uther": 8888,
      "Ġrect": 8889,
      "Ġredef": 8890,
      "sell": 8891,
      "raham": 8892,
      "Ġanten": 8893,
      "irlf": 8894,
      "outs": 8895,
      "Ġworms": 8896,
      "Ġheal": 8897,
      "Ġshit": 8898,
      "Ġshine": 8899,
      "Ġproven": 8900,
      "Ġknife": 8901,
      "istot": 8902,
      "Ġintended": 8903,
      "Ġven": 8904,
      "Ġspill": 8905,
      "Ġseeking": 8906,
      "ĠAge": 8907,
      "iece": 8908,
      "Ġplank": 8909,
      "ĠSee": 8910,
      "ĠSnow": 8911,
      "ĠSanta": 8912,
      "ĠMom": 8913,
      "ĠMike": 8914,
      "Ġdonor": 8915,
      "Ġmanual": 8916,
      "Ġcoinc": 8917,
      "ĠBell": 8918,
      "ĠEric": 8919,
      "Ġovernight": 8920,
      "ensus": 8921,
      "ĠTy": 8922,
      "ĠNic": 8923,
      "eps": 8924,
      "Ġcontrary": 8925,
      "Ġresidents": 8926,
      "Ġampl": 8927,
      "icked": 8928,
      "ĠRand": 8929,
      "ĠRos": 8930,
      "Ġprevention": 8931,
      "ĠFord": 8932,
      "Ġbrid": 8933,
      "Ġmayor": 8934,
      "Ġtrace": 8935,
      "iously": 8936,
      "Ġobt": 8937,
      "Ġinterconnected": 8938,
      "Ġsidewalk": 8939,
      "Ġreasonable": 8940,
      "Ġdefic": 8941,
      "Ġequations": 8942,
      "Ġlabs": 8943,
      "Ġchallenged": 8944,
      "Ġterritory": 8945,
      "Ġabsence": 8946,
      "Ġ55": 8947,
      "ĠYorker": 8948,
      "Somebody": 8949,
      "Ġdawn": 8950,
      "Ġarguing": 8951,
      "Ġrequest": 8952,
      "Ġdestiny": 8953,
      "ĠShanghai": 8954,
      "Ġmarvel": 8955,
      "Ġmainstream": 8956,
      "Ġdescribes": 8957,
      "Ġimmig": 8958,
      "Ġempowered": 8959,
      "Ġsafely": 8960,
      "Ġecology": 8961,
      "Ġconcerns": 8962,
      "Ġclinics": 8963,
      "uddenly": 8964,
      "Ġcooperate": 8965,
      "Ġpuzzles": 8966,
      "Ġbags": 8967,
      "ĠBanglades": 8968,
      "Ġpursuit": 8969,
      "Ġvolunteer": 8970,
      "Ġbullet": 8971,
      "ĠColumb": 8972,
      "Ġminimum": 8973,
      "Ġhorizon": 8974,
      "ĠResearch": 8975,
      "Ġhormone": 8976,
      "Ġwhistle": 8977,
      "Ġconstraints": 8978,
      "Ġcluster": 8979,
      "Ġacknowledge": 8980,
      "Ġstriking": 8981,
      "Ġconvenient": 8982,
      "ĠPalestin": 8983,
      "Ġunhappy": 8984,
      "Both": 8985,
      "Cons": 8986,
      "During": 8987,
      "bow": 8988,
      "gram": 8989,
      "gments": 8990,
      "uctor": 8991,
      "Ġathe": 8992,
      "Ġfallen": 8993,
      "Ġfires": 8994,
      "Ġgif": 8995,
      "ete": 8996,
      "erent": 8997,
      "Ġstored": 8998,
      "ifty": 8999,
      "Ġmelt": 9000,
      "Ġjet": 9001,
      "Ġjazz": 9002,
      "Ġjihad": 9003,
      "Ġproved": 9004,
      "Ġproceed": 9005,
      "Ġchains": 9006,
      "ureauc": 9007,
      "Ġmapping": 9008,
      "Ġvia": 9009,
      "Ġvalley": 9010,
      "Ġenabled": 9011,
      "ĠMill": 9012,
      "Ġexposure": 9013,
      "Ġsheets": 9014,
      "ĠLake": 9015,
      "ictor": 9016,
      "Ġoffers": 9017,
      "ĠJose": 9018,
      "Ġraped": 9019,
      "Ġhumanitarian": 9020,
      "Ġtransmit": 9021,
      "Ġtransmission": 9022,
      "Ġinsane": 9023,
      "Ġgrabb": 9024,
      "ucose": 9025,
      "Ġterrain": 9026,
      "Ġstrict": 9027,
      "Being": 9028,
      "conomic": 9029,
      "Ġbiol": 9030,
      "Ġeconomist": 9031,
      "...\"": 9032,
      "Ġinfant": 9033,
      "Ġ42": 9034,
      "Ġformula": 9035,
      "Ġheadlines": 9036,
      "Ġsett": 9037,
      "Ġhalfway": 9038,
      "Ġstopping": 9039,
      "eady": 9040,
      "Ġprotest": 9041,
      "Ġ2002": 9042,
      "Ġreflection": 9043,
      "Ġlocally": 9044,
      "Ġlocations": 9045,
      "Ġassets": 9046,
      "Ġadvances": 9047,
      "Ġmarketplace": 9048,
      "Ġlistened": 9049,
      "Ġmotors": 9050,
      "Ġfailures": 9051,
      "Ġpsychologist": 9052,
      "Ġtempor": 9053,
      "Ġstays": 9054,
      "ĠThree": 9055,
      "ĠZeal": 9056,
      "Ġattacked": 9057,
      "Ġextraordinarily": 9058,
      "ĠFriday": 9059,
      "Ġinfections": 9060,
      "Ġcalculations": 9061,
      "Ġcontributed": 9062,
      "Ġemails": 9063,
      "Ġpreparing": 9064,
      "Ġhonestly": 9065,
      "Ġsurrounding": 9066,
      "Ġtension": 9067,
      "Ġdoubled": 9068,
      "criptions": 9069,
      "Ġclaims": 9070,
      "Ġconcentrated": 9071,
      "Ġcomplain": 9072,
      "Ġelementary": 9073,
      "Ġnewspapers": 9074,
      "Ġkingdom": 9075,
      "Ġlimitations": 9076,
      "Ġcontinuous": 9077,
      "Ġmanipulate": 9078,
      "Ġpalm": 9079,
      "Ġreproduce": 9080,
      "Ġelectrodes": 9081,
      "Ġbarrier": 9082,
      "Ġrecycling": 9083,
      "ĠPeace": 9084,
      "Ġgeometry": 9085,
      "Ġelegant": 9086,
      "ĠCarolina": 9087,
      "ĠBrooklyn": 9088,
      "Ġinevitably": 9089,
      "Ġdowntown": 9090,
      ",'": 9091,
      "Bl": 9092,
      "ga": 9093,
      "grad": 9094,
      "hh": 9095,
      "oen": 9096,
      "ye": 9097,
      "Ġturb": 9098,
      "Ġaug": 9099,
      "Ġwrap": 9100,
      "Ġsons": 9101,
      "erry": 9102,
      "Ġbother": 9103,
      "Ġbills": 9104,
      "Ġfate": 9105,
      "Ġfathers": 9106,
      "Ġinch": 9107,
      "Ġloose": 9108,
      "arians": 9109,
      "Ġnodes": 9110,
      "uty": 9111,
      "Ġrender": 9112,
      "enth": 9113,
      "ifact": 9114,
      "irts": 9115,
      "ules": 9116,
      "Ġprostate": 9117,
      "Ġrib": 9118,
      "Ġmand": 9119,
      "Ġvit": 9120,
      "Ġvoting": 9121,
      "Ġsperm": 9122,
      "ĠSur": 9123,
      "ĠSir": 9124,
      "ĠSky": 9125,
      "Whatever": 9126,
      "Ġsail": 9127,
      "ournal": 9128,
      "aped": 9129,
      "Ġworkplace": 9130,
      "Ġenforce": 9131,
      "Ġmanner": 9132,
      "enses": 9133,
      "elled": 9134,
      "ĠLincoln": 9135,
      "Ġambit": 9136,
      "Ġguard": 9137,
      "Ġobese": 9138,
      "Ġsched": 9139,
      "Ġkeys": 9140,
      "Ġbelieving": 9141,
      "Ġboats": 9142,
      "Ġfoundations": 9143,
      "Ġdrum": 9144,
      "cycl": 9145,
      "Ġreaders": 9146,
      "ĠYemen": 9147,
      "Ġcorrupt": 9148,
      "Ġconfig": 9149,
      "Ġbeautifully": 9150,
      "Ġcolored": 9151,
      "Ġamazed": 9152,
      "Ġamazingly": 9153,
      "Ġfollows": 9154,
      "Ġdeepest": 9155,
      "Ġterrified": 9156,
      "Ġsupermarket": 9157,
[...]
